{
  "<s>": 0,
  "<pad>": 1,
  "</s>": 2,
  "<unk>": 3,
  ">>eng<<": 4,
  ">>pol<<": 5,
  ",": 6,
  ".": 7,
  "\u2581the": 8,
  "s": 9,
  "\u2581to": 10,
  "\u2581w": 11,
  "\u2581of": 12,
  "\u2581and": 13,
  "\u2581in": 14,
  "\u2581i": 15,
  "\u2581a": 16,
  "\u2581-": 17,
  "\u2581z": 18,
  "'": 19,
  ":": 20,
  "\u2581na": 21,
  "\u2581do": 22,
  "?": 23,
  "a": 24,
  "\u2581I": 25,
  "\u2581you": 26,
  "\u2581for": 27,
  "\u2581is": 28,
  "-": 29,
  "y": 30,
  "\u2581(": 31,
  "\u2581si\u0119": 32,
  "m": 33,
  "t": 34,
  ")": 35,
  "\u2581nie": 36,
  "e": 37,
  "\u2581with": 38,
  "\u2581jest": 39,
  "\u2581that": 40,
  "\u2581on": 41,
  "\u2581The": 42,
  "u": 43,
  "\u2581": 44,
  "\u2581it": 45,
  "...": 46,
  "\u2581be": 47,
  "\u2581o": 48,
  "i": 49,
  "!": 50,
  "\u2581\u017ce": 51,
  "ch": 52,
  "ing": 53,
  "\u2581are": 54,
  "\u2581by": 55,
  "d": 56,
  "\u2581your": 57,
  "\u2581from": 58,
  "\u2581this": 59,
  "j": 60,
  "\u2581can": 61,
  "o": 62,
  "\u2581za": 63,
  "\u2581not": 64,
  "\u2581W": 65,
  "ed": 66,
  "\u2581as": 67,
  "\u2581po": 68,
  "\u2581A": 69,
  "\u2581od": 70,
  "em": 71,
  "\u2581or": 72,
  "\u2581dla": 73,
  "\u2581was": 74,
  "\u2581have": 75,
  "re": 76,
  "\u2581we": 77,
  "\u00f3w": 78,
  "\u2581\"": 79,
  "com": 80,
  "\u2581Hotel": 81,
  "\u2581at": 82,
  "\u2581\u2013": 83,
  "\u2581You": 84,
  "go": 85,
  "er": 86,
  "\u2581will": 87,
  "na": 88,
  "\u2581Nie": 89,
  "\u2581jak": 90,
  "\u0105": 91,
  "\u2581an": 92,
  "\u2581all": 93,
  "\u2581To": 94,
  "\u25811": 95,
  "/": 96,
  "\u2581przez": 97,
  "\u2581co": 98,
  "ne": 99,
  "\u2581me": 100,
  "\u2581lub": 101,
  "\u0119": 102,
  ";": 103,
  "\u2581It": 104,
  "\u2581s\u0105": 105,
  "nie": 106,
  "mi": 107,
  "\u2581S": 108,
  "\u2581We": 109,
  "\u2581oraz": 110,
  "\u0107": 111,
  "ie": 112,
  "n": 113,
  "\u2581my": 114,
  "\u2581which": 115,
  "\u2581one": 116,
  "\u2581go": 117,
  "z": 118,
  "\u2581tym": 119,
  "\u2581In": 120,
  "ly": 121,
  "\u2581Hotels": 122,
  "\u2581about": 123,
  "\u2581so": 124,
  "\u2581our": 125,
  "\u2581/": 126,
  "ka": 127,
  "\u25812": 128,
  "\"": 129,
  "c": 130,
  "\u2581he": 131,
  "ny": 132,
  "\u2581has": 133,
  "li": 134,
  "w": 135,
  "ki": 136,
  "\u2581but": 137,
  "\u2581ma": 138,
  "my": 139,
  "ll": 140,
  "\u2581up": 141,
  "\u2581time": 142,
  "in": 143,
  "\u2581out": 144,
  "\u2581more": 145,
  "\u2581TripAdvisor": 146,
  "\u2581wy": 147,
  "ami": 148,
  "ach": 149,
  "r": 150,
  "S": 151,
  "\u2581also": 152,
  "\u2581Po": 153,
  "k": 154,
  "\u2581know": 155,
  "\u2581Z": 156,
  "owe": 157,
  "\u2581This": 158,
  "al": 159,
  "sz": 160,
  "cie": 161,
  "\u2581kt\u00f3re": 162,
  "\u2581there": 163,
  "\u2581u": 164,
  "nia": 165,
  "\u2581Na": 166,
  "\u2581what": 167,
  "\u25813": 168,
  "es": 169,
  "\u2581przy": 170,
  "\u2581by\u0107": 171,
  "\u2581like": 172,
  "\u2581mo\u017ce": 173,
  "\u2581O": 174,
  "\u2581ale": 175,
  "\u2019": 176,
  "\u2581just": 177,
  "\u0142": 178,
  "\u2581tego": 179,
  "\u2581No": 180,
  "\u2581&": 181,
  "\u2581mi": 182,
  "\u2581ze": 183,
  "\u2581Restaurants": 184,
  "A": 185,
  "\u2581pod": 186,
  "g": 187,
  "\u2581aby": 188,
  "\u2581get": 189,
  ").": 190,
  "\u2581And": 191,
  "\u2581no": 192,
  "\u2581if": 193,
  "\u2581Do": 194,
  "\u2581their": 195,
  "B": 196,
  "\u2581tak": 197,
  "\u2581other": 198,
  "C": 199,
  "\u2581hotelu": 200,
  "\u2581they": 201,
  "\u2581He": 202,
  "ce": 203,
  "\u2581here": 204,
  "ve": 205,
  "\u2581online": 206,
  "\u2581prze": 207,
  "\u2581B": 208,
  "\u2581tylko": 209,
  "\u2581Co": 210,
  "\u2581us": 211,
  "\u2581de": 212,
  "\u2581should": 213,
  "\u2581P": 214,
  "\u2581What": 215,
  "\u2581been": 216,
  "\u2581his": 217,
  "\u2581.": 218,
  "\u2581E": 219,
  "or": 220,
  "\u2581don": 221,
  "\u2581bez": 222,
  "D": 223,
  "\u2581only": 224,
  "owych": 225,
  "p": 226,
  "\u2581pobli\u017cu": 227,
  "\u2581new": 228,
  "\u2581mnie": 229,
  "b": 230,
  "2": 231,
  "\u2581any": 232,
  "\u2581were": 233,
  "l": 234,
  "no": 235,
  "\u2581G": 236,
  "\u0142a": 237,
  "\u258110": 238,
  "owy": 239,
  "ni": 240,
  "\u25815": 241,
  "\u2581her": 242,
  "\u2581right": 243,
  "\u2581D": 244,
  "\u2581want": 245,
  "\u2581near": 246,
  "\u2581who": 247,
  "\u2581hotel": 248,
  "\u2581find": 249,
  "\u2581U": 250,
  "\u2581C": 251,
  "\u2581If": 252,
  "\u2581its": 253,
  "\u2581when": 254,
  "\u2581s": 255,
  "\u2581All": 256,
  "\u2581system": 257,
  "\u2581ich": 258,
  "\u25814": 259,
  "\u2581use": 260,
  "\u2581r\u00f3wnie\u017c": 261,
  "owa": 262,
  "\u2581jego": 263,
  "\u2581b\u0119dzie": 264,
  "j\u0105": 265,
  "\u2581file": 266,
  "\u2581\u2014": 267,
  "\u2581him": 268,
  "\u2581e": 269,
  "\u2581M": 270,
  "ej": 271,
  "P": 272,
  "\u2581K": 273,
  "\u2581czy": 274,
  "ek": 275,
  "\u2581Za": 276,
  "\u2581information": 277,
  "\u2581So": 278,
  "G": 279,
  "W": 280,
  "\u2581bardzo": 281,
  "\u2581|": 282,
  "\u2581Best": 283,
  "le": 284,
  "\u2581mo\u017cna": 285,
  "\u2581now": 286,
  "\u2581very": 287,
  "\u2581free": 288,
  "ego": 289,
  "\u2581well": 290,
  "en": 291,
  "\u2581into": 292,
  "\u2581re": 293,
  "\u2581would": 294,
  "\u2581them": 295,
  "\u2581r": 296,
  "\u2581wszystkie": 297,
  "ia": 298,
  "\u201d": 299,
  "\u2581may": 300,
  "to": 301,
  "\u2581need": 302,
  "nych": 303,
  "\u2581tak\u017ce": 304,
  "\u2581mo\u017cesz": 305,
  "\u2581mie\u015bcie": 306,
  "\u2581some": 307,
  "ty": 308,
  "K": 309,
  "\u2581see": 310,
  "\u2581For": 311,
  "on": 312,
  "ta": 313,
  "\u2581work": 314,
  "\u2581most": 315,
  "\u2581ten": 316,
  "\u2581best": 317,
  "\u2581T": 318,
  "T": 319,
  "M": 320,
  "\u2581first": 321,
  "ca": 322,
  "\u2581kt\u00f3ry": 323,
  "\u2581ci": 324,
  "om": 325,
  "\u2581people": 326,
  "\u2581had": 327,
  "),": 328,
  "\u2581data": 329,
  "F": 330,
  "\u2581jako": 331,
  "\u2581But": 332,
  "\u2581European": 333,
  "x": 334,
  "\u2581such": 335,
  "\u2581wi\u0119cej": 336,
  "\u2581obiektu": 337,
  "\u2581tej": 338,
  "\u2581make": 339,
  "\u25817": 340,
  "n\u0105": 341,
  "\u2581over": 342,
  "\u2581ju\u017c": 343,
  "\u2581help": 344,
  "line": 345,
  "\u2581good": 346,
  "de": 347,
  "\u2581hotele": 348,
  "\u2581book": 349,
  "\u25816": 350,
  "\u2581two": 351,
  "V": 352,
  "\u2581Inn": 353,
  "\u2581take": 354,
  "\u2581than": 355,
  "ych": 356,
  "h": 357,
  "ers": 358,
  "an": 359,
  "\u2581Jak": 360,
  "\u2581R": 361,
  "\u2581how": 362,
  "\u2581jej": 363,
  "\u2581got": 364,
  "\u2581przed": 365,
  "\u2581she": 366,
  "\u2581these": 367,
  "\u2581way": 368,
  "\u2581Windows": 369,
  "\u2581think": 370,
  "\u2581m": 371,
  "\u2581Ci": 372,
  "\u2581La": 373,
  "th": 374,
  "\u2581\u201e": 375,
  "\u2581roku": 376,
  "3": 377,
  "I": 378,
  "\u2581How": 379,
  "\u2581Najlepsze": 380,
  "\u2581where": 381,
  "\u2581Restauracje": 382,
  "N": 383,
  "\u2581after": 384,
  "\u2581weather": 385,
  "\u2581Booking": 386,
  "1": 387,
  "\u2581tu": 388,
  "\u0142o": 389,
  "\u2581Je\u015bli": 390,
  "\u2581back": 391,
  "cy": 392,
  "\u2581could": 393,
  "\u258120": 394,
  "la": 395,
  "\u2581shall": 396,
  "\u2581That": 397,
  "\u2581L": 398,
  "E": 399,
  "\u2581problem": 400,
  "\u2581F": 401,
  "\u2581te": 402,
  "\u2581mog\u0105": 403,
  "\u2581\u201c": 404,
  "\u2581restauracje": 405,
  "ze": 406,
  "]": 407,
  "\u2581New": 408,
  "\u2581used": 409,
  "\u25818": 410,
  "owej": 411,
  "\u2581by\u0142": 412,
  "\u2581Re": 413,
  "f": 414,
  "one": 415,
  "ma": 416,
  "L": 417,
  "\u2581Ale": 418,
  "\u2581je\u015bli": 419,
  "O": 420,
  "\u2581km": 421,
  "ku": 422,
  "owego": 423,
  "\u2581device": 424,
  "am": 425,
  "da": 426,
  "\u2581There": 427,
  "\u2581hotels": 428,
  "ation": 429,
  "\u2581Wy": 430,
  "\u2581did": 431,
  "\u2581[": 432,
  "H": 433,
  "ra": 434,
  "\u2581Tak": 435,
  "\u2581SA": 436,
  "\u2581Search": 437,
  "\u2581V": 438,
  "\u2581years": 439,
  "\u2581States": 440,
  "zy": 441,
  "\u2581Weather": 442,
  "4": 443,
  "\u2581must": 444,
  "\u2581Czy": 445,
  "\u2581place": 446,
  "v": 447,
  "\u2581celu": 448,
  "ko": 449,
  "\u2581day": 450,
  "za": 451,
  "\u2581danych": 452,
  "\u0142y": 453,
  "wa": 454,
  "\u2581available": 455,
  "\u2581then": 456,
  "ton": 457,
  "Z": 458,
  "\u2581They": 459,
  "ic": 460,
  "\u2581je": 461,
  "\u2581'": 462,
  "\u2581ja": 463,
  "ry": 464,
  "uje": 465,
  "\u2581bo": 466,
  "\u2581Travelocity": 467,
  "ro": 468,
  "\u2581dzi\u0119ki": 469,
  "\u017c": 470,
  "owa\u0107": 471,
  "R": 472,
  "co": 473,
  "\u2581She": 474,
  "at": 475,
  "\u2581Expedia": 476,
  "te": 477,
  "enie": 478,
  "ar": 479,
  "\u258115": 480,
  "\u2581United": 481,
  "5": 482,
  "\u2581pracy": 483,
  "\u2581KAYAK": 484,
  "enia": 485,
  "\u2581czas": 486,
  "\u2581Hotwire": 487,
  "by": 488,
  "man": 489,
  "\u2581On": 490,
  "\u2581wszystkich": 491,
  "\u2581between": 492,
  "\u2581even": 493,
  "\u2581Jest": 494,
  "\u2581N": 495,
  "\u2581Cheap": 496,
  "\u2581Ta": 497,
  "\u2581down": 498,
  "ga": 499,
  "\u2581by\u0142o": 500,
  "\u2581H": 501,
  "\u2581Well": 502,
  "\u2581same": 503,
  "\u2581under": 504,
  "\u2581gdy": 505,
  "ion": 506,
  "\u2581many": 507,
  "\u2581tych": 508,
  "\u2581ni\u017c": 509,
  "\u2581roz": 510,
  "\u2581world": 511,
  "po": 512,
  "\u2581art": 513,
  "\u2581Od": 514,
  "\u2581City": 515,
  "\u2581My": 516,
  "able": 517,
  "\u2581lokalizacji": 518,
  "\u2581made": 519,
  "ci": 520,
  "owi": 521,
  "lo": 522,
  "\u2581Free": 523,
  "\u2581through": 524,
  "\u2581going": 525,
  "owanie": 526,
  "\u2581ci\u0119": 527,
  "\u2581firm": 528,
  "\u2581sobie": 529,
  "\u2581games": 530,
  "\u2581man": 531,
  "U": 532,
  "\u2581products": 533,
  "\u2581te\u017c": 534,
  "nego": 535,
  "\u258119": 536,
  "\u2581come": 537,
  "\u2581informacje": 538,
  "\u2581spos\u00f3b": 539,
  "\u2581part": 540,
  "\u2581life": 541,
  "\u2581Driver": 542,
  "do": 543,
  "\u2581lat": 544,
  "\u2581those": 545,
  "\u2581forecast": 546,
  "\u2581pan": 547,
  "\u2581teraz": 548,
  "\u2581Bo": 549,
  "\u2581San": 550,
  "owania": 551,
  "us": 552,
  "\u2581partner": 553,
  "\u2581De": 554,
  "ja": 555,
  "\u2581innych": 556,
  "\u2581tam": 557,
  "\u2581nale\u017cy": 558,
  "\u2581gry": 559,
  "el": 560,
  "\u2581car": 561,
  "\u2581because": 562,
  "dy": 563,
  "\u2581much": 564,
  "\u2581Oh": 565,
  "\u2581before": 566,
  "\u2581stronie": 567,
  "\u2581j\u0105": 568,
  "\u2581Commission": 569,
  "\u2581order": 570,
  "\u2581TripOn": 571,
  "\u2581kt\u00f3ra": 572,
  "\u2581does": 573,
  "ment": 574,
  "\u2581Pro": 575,
  "\u2581Ja": 576,
  "\u2581gonna": 577,
  "\u258112": 578,
  "\u2581found": 579,
  "\u2581rezerwacji": 580,
  "\u2581Europe": 581,
  "\u2581high": 582,
  "X": 583,
  "\u2581strony": 584,
  "\u2581co\u015b": 585,
  "nej": 586,
  "\u2581pogody": 587,
  "\u2581Park": 588,
  "\u2581Orbitz": 589,
  "\u2581Cancelon": 590,
  "k\u0119": 591,
  "\u2581ta": 592,
  "\u2581nad": 593,
  "\u2581ty": 594,
  "\u2581computer": 595,
  "wi": 596,
  "\u25819": 597,
  "\u2581Home": 598,
  "\u2581year": 599,
  "\u2581As": 600,
  "\u2581jeszcze": 601,
  "\u2581tutaj": 602,
  "\u2581long": 603,
  "\u2581program": 604,
  "ow\u0105": 605,
  "\u2581great": 606,
  "\u2581different": 607,
  "\u2581without": 608,
  "\u2581conditions": 609,
  "it": 610,
  "\u2581Le": 611,
  "\u2581wiele": 612,
  "\u2581X": 613,
  "st": 614,
  "\u2581number": 615,
  "\u2581wszystko": 616,
  "il": 617,
  "\u2581really": 618,
  "\u2581website": 619,
  "\u2581say": 620,
  "\u2581provide": 621,
  "\u2581still": 622,
  "\u2581St": 623,
  "\u2581name": 624,
  "\u0142em": 625,
  "\u2581open": 626,
  "6": 627,
  "\u2581own": 628,
  "\u2581said": 629,
  "\u258118": 630,
  "(": 631,
  "\u2581am": 632,
  "ter": 633,
  "\u2581mu": 634,
  "pl": 635,
  "\u2581urz\u0105dzenia": 636,
  "\u2581services": 637,
  "\u2581related": 638,
  "ona": 639,
  "\u2581Poland": 640,
  "\u2581p": 641,
  "\u2581deal": 642,
  "mu": 643,
  "\u258130": 644,
  "\u2581Bar": 645,
  "\u2581stay": 646,
  "\u2581following": 647,
  "J": 648,
  "\u2581download": 649,
  "ym": 650,
  "\u2581Priceline": 651,
  "\u2581something": 652,
  "\u2581Member": 653,
  "\u2581Hotele": 654,
  "8": 655,
  "\u2581Google": 656,
  "\u2581zosta\u0142": 657,
  "is": 658,
  "7": 659,
  "\u2581game": 660,
  "\u2581off": 661,
  "\u2581czemu": 662,
  "\u2581Prze": 663,
  "\u2581jednak": 664,
  "\u2581informacji": 665,
  "\u2581przypadku": 666,
  "\u2581set": 667,
  "\u2581user": 668,
  "\u2581every": 669,
  "\u2581Get": 670,
  "\u2581pliku": 671,
  "ity": 672,
  "\u2581flights": 673,
  "\u2581look": 674,
  "Y": 675,
  "\u2581nas": 676,
  "\u2581Wszystkie": 677,
  "\u2581Przy": 678,
  "\u2581When": 679,
  "\u2581Ma": 680,
  "\u2581kt\u00f3rych": 681,
  "\u2581Airport": 682,
  "\u2581Article": 683,
  "up": 684,
  "mo": 685,
  "ba": 686,
  "\u2581case": 687,
  "nym": 688,
  "\u2581Internet": 689,
  "\u2581little": 690,
  "\u2581wi\u0119c": 691,
  "\u2581d": 692,
  "li\u015bmy": 693,
  "\u2581play": 694,
  "\u2581Al": 695,
  "\u2581home": 696,
  "\u2581kiedy": 697,
  "\u2581HotelQuickly": 698,
  "\u015b": 699,
  "bi": 700,
  "k\u0105": 701,
  "\u2581temu": 702,
  "je": 703,
  "\u2581jeste\u015b": 704,
  "\u2581room": 705,
  "\u2581God": 706,
  "\u2581love": 707,
  "\u2581business": 708,
  "gi": 709,
  "\u2581list": 710,
  "\u2581gdzie": 711,
  "ania": 712,
  "\u2581r\u00f3\u017cnych": 713,
  "tu": 714,
  "\u2581important": 715,
  "\".": 716,
  "\u2581Yeah": 717,
  "\u2581g": 718,
  "\u2581nawet": 719,
  "\u2581using": 720,
  "\u2581within": 721,
  "niu": 722,
  "ha": 723,
  "\u2581service": 724,
  "\u2581each": 725,
  "\u2581temat": 726,
  "\u2581last": 727,
  "\u2581Beach": 728,
  "ak": 729,
  "\u2581days": 730,
  "\u2581J": 731,
  "\u2581market": 732,
  "\u2581let": 733,
  "\u2581znale\u017a\u0107": 734,
  "\u2581being": 735,
  "\u2581quality": 736,
  "\u2581Play": 737,
  "\u2581Go": 738,
  "\u2581water": 739,
  "\u2581nowe": 740,
  "wy": 741,
  "\u2581company": 742,
  "\u2581possible": 743,
  "owane": 744,
  "ska": 745,
  "cz": 746,
  "\u2581un": 747,
  "\u2581EU": 748,
  "owym": 749,
  "\u2581Car": 750,
  "\u2581nam": 751,
  "\u2581podczas": 752,
  "\u2581El": 753,
  "\u2581dni": 754,
  "ary": 755,
  "\u2581never": 756,
  "\u2581tell": 757,
  "\u2581by\u0142a": 758,
  "\u2581\u2022": 759,
  "\u2581around": 760,
  "ur": 761,
  "\u2581past": 762,
  "\u2581mi\u0119dzy": 763,
  "\u2581product": 764,
  "\u2581another": 765,
  "\u0142am": 766,
  "ony": 767,
  "\u2581didn": 768,
  "\u2581chcesz": 769,
  "\u2581obs\u0142ugi": 770,
  "\u2581both": 771,
  "\u2581give": 772,
  "\u2581miejsce": 773,
  "\u2581maj\u0105": 774,
  "_": 775,
  "\u2581city": 776,
  "\u2581proud": 777,
  "\u2581Our": 778,
  "\u2581area": 779,
  "\u2581lot": 780,
  "\u2581Now": 781,
  "\u2581b": 782,
  "\u2581dotycz\u0105ce": 783,
  "\u2581too": 784,
  "\u2581dobrze": 785,
  "wo": 786,
  "\u2581access": 787,
  "\u2581type": 788,
  "\u2581cz\u0119\u015bci": 789,
  "\u2581domu": 790,
  "\u2581application": 791,
  "\u2581Polish": 792,
  "\u2581mam": 793,
  "ii": 794,
  "\u2581reservations": 795,
  "acji": 796,
  "\u2581os\u00f3b": 797,
  "\u2581dnia": 798,
  "\u2581start": 799,
  "\u2581>": 800,
  "\u258114": 801,
  "ist": 802,
  "a\u0107": 803,
  "\u2581obaw": 804,
  "be": 805,
  "\u2581Your": 806,
  "\u2581including": 807,
  "\u2581naszych": 808,
  "\u25810": 809,
  "acja": 810,
  "\u2581confidence": 811,
  "\u2581kt\u00f3rzy": 812,
  "cia": 813,
  "\u2581See": 814,
  "\u2581manual": 815,
  "\u2581dzieci": 816,
  "\u2581driver": 817,
  "et": 818,
  "\u2581opinie": 819,
  "nik": 820,
  "age": 821,
  "\u2581during": 822,
  "\u2581house": 823,
  "bo": 824,
  "iem": 825,
  "\u2581jestem": 826,
  "\u2581Tickets": 827,
  "\u2581miasta": 828,
  "\u2581b\u0119d\u0105": 829,
  "\u2581English": 830,
  "\u2581partnerem": 831,
  "\u2581body": 832,
  "\u2581page": 833,
  ".\"": 834,
  "\u2581better": 835,
  "pa": 836,
  "\u2581price": 837,
  "\u2581At": 838,
  "\u2581ob": 839,
  "\u2581end": 840,
  "\u2581support": 841,
  "\u2581k": 842,
  "\u2581More": 843,
  "\u2581nast\u0119puj\u0105cym": 844,
  "\u2581real": 845,
  "\u2581ust": 846,
  "\u2581mean": 847,
  "\u2581map": 848,
  "\u2581masz": 849,
  "czy": 850,
  "\u2581House": 851,
  "\u2581#": 852,
  "\u2581always": 853,
  "\u2581nich": 854,
  "9": 855,
  "\u2581go\u015bci": 856,
  "\u2581odpowiedzi": 857,
  "\u2581why": 858,
  "00": 859,
  "\u2581dokonywa\u0107": 860,
  "um": 861,
  "\u2581kilka": 862,
  "\u2581ago": 863,
  "\u2581few": 864,
  "\u2581Pogoda": 865,
  "ive": 866,
  "\u2581International": 867,
  "10": 868,
  "\u2581musi": 869,
  "\u2581Aby": 870,
  "\u2581development": 871,
  "\u2581swoje": 872,
  "\u258111": 873,
  "\u2581sw\u00f3j": 874,
  "\u2581Why": 875,
  "\u2581dane": 876,
  "id": 877,
  "\u2581czasie": 878,
  "\u2581again": 879,
  "ang": 880,
  "\u2581Mar": 881,
  "dzie": 882,
  "\u2581bardziej": 883,
  "\u2581oferty": 884,
  "\u2581per": 885,
  "\u2581Suites": 886,
  "\u2581form": 887,
  "\u2581zgodnie": 888,
  "ness": 889,
  "\u2581dumnym": 890,
  "\u2581Don": 891,
  "\u2581czasu": 892,
  "ski": 893,
  "os": 894,
  "\u2581view": 895,
  "\u2581An": 896,
  "me": 897,
  "\u2581pre": 898,
  "ad": 899,
  "\u2581produkt\u00f3w": 900,
  "\u2581things": 901,
  "\u2581away": 902,
  "\u2581zrobi\u0107": 903,
  "\u2581full": 904,
  "\u258116": 905,
  "\u2581Zobacz": 906,
  "\u2581thing": 907,
  "\u2581Mo": 908,
  "\u2581level": 909,
  "\u2581offer": 910,
  "anie": 911,
  "ant": 912,
  "pe": 913,
  "\u2581With": 914,
  "\u2581gra": 915,
  "land": 916,
  "\u2581ciebie": 917,
  "\u2581jako\u015bci": 918,
  "the": 919,
  "\u2581\u017ceby": 920,
  "\u2581takie": 921,
  "\u2581current": 922,
  "\u2581ludzi": 923,
  "\u2581Ten": 924,
  "\u2581Te": 925,
  "\u2581site": 926,
  "\u2581Polska": 927,
  "\u2581inne": 928,
  "\u2581quick": 929,
  "\u2581mog\u0119": 930,
  "ate": 931,
  "\u2581znajdziesz": 932,
  "\u2581three": 933,
  "\u2581Manual": 934,
  "\u2581Reviews": 935,
  "\u2581One": 936,
  "\u2581takich": 937,
  "\u2581loty": 938,
  "\u2581plan": 939,
  "ana": 940,
  "\u2581today": 941,
  "\u2581process": 942,
  "\u2581next": 943,
  "\u2581results": 944,
  "\u2581II": 945,
  "\u2581us\u0142ug": 946,
  "\u2581Can": 947,
  "est": 948,
  "\u2581family": 949,
  "\u2581sure": 950,
  "\u2581c": 951,
  "owo": 952,
  "\u2581Options": 953,
  "\u2581wielu": 954,
  "\u2581firmy": 955,
  "un": 956,
  "od": 957,
  "\u2581change": 958,
  "\u2581while": 959,
  "\u2581pro": 960,
  "\u2581tanie": 961,
  "\u2581x": 962,
  "\u2581personal": 963,
  "k\u00f3w": 964,
  "\u2581staff": 965,
  "\u2581Me": 966,
  "\u2581plik": 967,
  "\u2581im": 968,
  "\u2581travel": 969,
  "\u2581Union": 970,
  "bit": 971,
  "\u2581children": 972,
  "\u2581Top": 973,
  "\u2581Mo\u017ce": 974,
  "\u2581centrum": 975,
  "\u2581\u00bb": 976,
  "\u2581cen": 977,
  "cze": 978,
  "\u2581Time": 979,
  "\u2581months": 980,
  "\u2581content": 981,
  "\u2581design": 982,
  "\u2581Air": 983,
  "\u2581+": 984,
  "\u2581Just": 985,
  "ent": 986,
  "\u2581Je\u017celi": 987,
  "ow": 988,
  "\u2581Holiday": 989,
  "ck": 990,
  "\u258150": 991,
  "\u2581Council": 992,
  "we": 993,
  "\u2581Be": 994,
  "\u2581albo": 995,
  "\u2581pom\u00f3c": 996,
  "EC": 997,
  "\u2581By": 998,
  "\u2581control": 999,
  "\u2581System": 1000,
  "\u2581znajduje": 1001,
  "\u2581transport": 1002,
  "\u2581nic": 1003,
  "\u2581night": 1004,
  "min": 1005,
  "\u2581power": 1006,
  "\u2581Regulation": 1007,
  "\u2581miejsca": 1008,
  "\u2581After": 1009,
  "\u2581show": 1010,
  "\u2581la": 1011,
  "\u258125": 1012,
  "\u2581kind": 1013,
  "\u258113": 1014,
  "\u2581public": 1015,
  "\u258124": 1016,
  "\u2581zawsze": 1017,
  "j\u0105c": 1018,
  "ol": 1019,
  "no\u015b\u0107": 1020,
  "rze": 1021,
  "\u2581offers": 1022,
  "\u2581week": 1023,
  "\u2581extension": 1024,
  "\u2581sprawie": 1025,
  "\u2581World": 1026,
  "\u2581kt\u00f3rym": 1027,
  "wie": 1028,
  "\u25812018": 1029,
  "ine": 1030,
  "\u2581nim": 1031,
  "\u2581keep": 1032,
  "\u2581air": 1033,
  "\u2581South": 1034,
  "\u2581Znajd\u017a": 1035,
  "\u017cy": 1036,
  "\u2581Bez": 1037,
  "\u2581TV": 1038,
  "\u2581sprzeda\u017c": 1039,
  "\u2581put": 1040,
  "ling": 1041,
  "\u2581prostu": 1042,
  "\u2581kt\u00f3rej": 1043,
  "tor": 1044,
  "\u2581small": 1045,
  "\u2581Let": 1046,
  "\u2581jeden": 1047,
  "\u258117": 1048,
  "\u2581UE": 1049,
  "\u2581Dzi\u0119ki": 1050,
  "per": 1051,
  "ting": 1052,
  "\u2581Mr": 1053,
  "\u2581zakresie": 1054,
  "\u2581Li": 1055,
  "ir": 1056,
  "\u2581_": 1057,
  "\u2581Pod": 1058,
  "dzi": 1059,
  "\u2581Where": 1060,
  "\u2581working": 1061,
  "\u2581problems": 1062,
  "\u2581raz": 1063,
  "uj": 1064,
  "\u2581Resort": 1065,
  "\u2581mie\u0107": 1066,
  "\u2581zwi\u0105zanych": 1067,
  "\u2581Mo\u017cesz": 1068,
  "\u2581ceny": 1069,
  "\u2581point": 1070,
  "\u2581account": 1071,
  "\u2581Wi\u0119c": 1072,
  "\u2581already": 1073,
  "\u2581plik\u00f3w": 1074,
  "\u2581based": 1075,
  "\u2581guests": 1076,
  "\u0144": 1077,
  "ber": 1078,
  "\u2581Man": 1079,
  "pi": 1080,
  "\u2581bar": 1081,
  "\u2581Czas": 1082,
  "\u2581live": 1083,
  "\u2581Zjednoczone": 1084,
  "\u2581special": 1085,
  "\u2581provided": 1086,
  "\u2581mm": 1087,
  "ul": 1088,
  "\u2581100": 1089,
  "\u2581warunki": 1090,
  "son": 1091,
  "mail": 1092,
  "\u2581dwa": 1093,
  "\u2581old": 1094,
  "\u2581means": 1095,
  "ner": 1096,
  "j\u0119": 1097,
  "\u2581country": 1098,
  "\u2581please": 1099,
  "\u2581najbardziej": 1100,
  "\u2581dzia\u0142ania": 1101,
  "owany": 1102,
  "\u2581Mam": 1103,
  "ke": 1104,
  "uj\u0105": 1105,
  "\u2581\u015bwiecie": 1106,
  "\u2581call": 1107,
  "\u2581software": 1108,
  "i\u0107": 1109,
  "\u2581might": 1110,
  "\u2581stop": 1111,
  "\u2581looking": 1112,
  "\u2581systemu": 1113,
  "\u2581model": 1114,
  "\u2581countries": 1115,
  "tra": 1116,
  "\u2581...": 1117,
  "\u2581hand": 1118,
  "\u2581money": 1119,
  "\u2581cheapest": 1120,
  "eniu": 1121,
  "\u2581Or": 1122,
  "\u2581poniewa\u017c": 1123,
  "\u2581Jestem": 1124,
  "\u2581experience": 1125,
  "\u2581typu": 1126,
  "\u2581swoich": 1127,
  "\u2581search": 1128,
  "lu": 1129,
  "\u2581main": 1130,
  "\u2581\u017cycia": 1131,
  "\u2581contact": 1132,
  "\u2581(1)": 1133,
  "der": 1134,
  "\u2581Ha": 1135,
  "\u2581naszej": 1136,
  "\u2581project": 1137,
  "\u2581rynku": 1138,
  "sh": 1139,
  "\u2581\u017cycie": 1140,
  "\u2581Not": 1141,
  "\u2581against": 1142,
  "\u2581minut": 1143,
  "\u2581Wi\u0119cej": 1144,
  "\u2581Star": 1145,
  "\u2581light": 1146,
  "\u2581hoteli": 1147,
  "e\u015b": 1148,
  "\u2581mamy": 1149,
  "\u2581Wikipedia": 1150,
  "\u2581located": 1151,
  "\u2581person": 1152,
  "\u2581ci\u0105gu": 1153,
  "30": 1154,
  "+": 1155,
  "20": 1156,
  "\u2581USA": 1157,
  "\u2581Reservation": 1158,
  "\u2581China": 1159,
  "\u2581stanie": 1160,
  "\u2581szybko": 1161,
  "\u2581getaroom": 1162,
  "\u2581food": 1163,
  "\u2581files": 1164,
  "\u2581wiesz": 1165,
  "im": 1166,
  "\u2581times": 1167,
  "a\u0142": 1168,
  "\u2581big": 1169,
  "\u2581mo\u017cemy": 1170,
  "\u2581dost\u0119pne": 1171,
  "\u2581pani": 1172,
  "o\u015b\u0107": 1173,
  "0": 1174,
  "and": 1175,
  "\u2581necessary": 1176,
  "\u2581thought": 1177,
  "\u2581second": 1178,
  "ler": 1179,
  "\u2581praw": 1180,
  "ian": 1181,
  "\u2581prices": 1182,
  "\u2581con": 1183,
  "\u2581Ko": 1184,
  "\u2581production": 1185,
  "ina": 1186,
  "\u2581West": 1187,
  "\u2581Pan": 1188,
  "se": 1189,
  "\u2581by\u0142y": 1190,
  "\u2581Ro": 1191,
  "\u2581course": 1192,
  "\u2581*": 1193,
  "\u2581poprzez": 1194,
  "\u2581everything": 1195,
  "\u2581wiem": 1196,
  "\u2581talk": 1197,
  "no\u015bci": 1198,
  "\u2581komputer": 1199,
  "\u2581human": 1200,
  "\u2581Dr": 1201,
  "\u2581feel": 1202,
  "\u2581Jeste\u015b": 1203,
  "\u2581care": 1204,
  "\u2581test": 1205,
  "pro": 1206,
  "\u2581equipment": 1207,
  "\u2581Wi": 1208,
  "\u2581able": 1209,
  "ge": 1210,
  "\u2581answers": 1211,
  "ster": 1212,
  "\u2581Italy": 1213,
  "\u25812017": 1214,
  "\u2581di": 1215,
  "\u2581period": 1216,
  "\u2581tre\u015bci": 1217,
  "\u2581try": 1218,
  "\u2581together": 1219,
  "\u2581film": 1220,
  "\u2581American": 1221,
  "\u2581State": 1222,
  "\u2581Sp": 1223,
  "\u2581install": 1224,
  "\u015bci": 1225,
  "\u258140": 1226,
  "sta": 1227,
  "\u2581France": 1228,
  "\u2581law": 1229,
  "\u2581Island": 1230,
  "\u2581zosta\u0107": 1231,
  "\u2581accommodation": 1232,
  "\u2581ramach": 1233,
  "ator": 1234,
  "\u2581Download": 1235,
  "\u2581apartment": 1236,
  "\u2581prawa": 1237,
  "\u2581easy": 1238,
  "ated": 1239,
  "\u2581doing": 1240,
  "zie": 1241,
  "\u2581Mi": 1242,
  "\u2581London": 1243,
  "\u2581whole": 1244,
  "\u2581oferuje": 1245,
  "\u2581since": 1246,
  "\u2581Lu": 1247,
  "\u2581Ty": 1248,
  "\u2581Hostel": 1249,
  "\u2581reviews": 1250,
  "ous": 1251,
  "\u2581anything": 1252,
  "ard": 1253,
  "\u25812016": 1254,
  "cja": 1255,
  "i\u0119": 1256,
  "\u2581North": 1257,
  "\u2581version": 1258,
  "szy": 1259,
  "\u2581national": 1260,
  "\u2581us\u0142ugi": 1261,
  "\u2581%": 1262,
  "\u2581Hey": 1263,
  "\u2581Dla": 1264,
  "ti": 1265,
  "\u2581believe": 1266,
  "\u0142e\u015b": 1267,
  "\u2581group": 1268,
  "\u2581Ka": 1269,
  "\u2581naprawd\u0119": 1270,
  "\u2581jednym": 1271,
  "less": 1272,
  "di": 1273,
  "\u2581kategorii": 1274,
  "\u2581sieci": 1275,
  "\u2581close": 1276,
  "\u2581range": 1277,
  "\u2581naj": 1278,
  "\u2581format": 1279,
  "\u2581Group": 1280,
  "\u2581mia\u0142": 1281,
  "\u2581mind": 1282,
  "kiem": 1283,
  "\u2581However": 1284,
  "\u2581Yes": 1285,
  "\u2581razem": 1286,
  "\u2581samo": 1287,
  "\u2581Local": 1288,
  "\u2581example": 1289,
  "\u2581Kiedy": 1290,
  "\u2581left": 1291,
  "\u2581ko": 1292,
  "\u2581User": 1293,
  "\u2581Con": 1294,
  "\u2581Szukaj": 1295,
  "\u2581local": 1296,
  "\u2581ever": 1297,
  "\u2581Please": 1298,
  "\u2581dw\u00f3ch": 1299,
  "rs": 1300,
  "\u2581popular": 1301,
  "\u2581having": 1302,
  "\u2581Europa": 1303,
  "ung": 1304,
  "ru": 1305,
  "\u2581research": 1306,
  "\u2581Business": 1307,
  "ot": 1308,
  "fa": 1309,
  "\u2581run": 1310,
  "\u2581minutes": 1311,
  "\u2581Port": 1312,
  "Q": 1313,
  "\u2581Vi": 1314,
  "\u2581nasze": 1315,
  "\u2581far": 1316,
  "\u2581miejscu": 1317,
  "\u2581language": 1318,
  "\u2581Ho": 1319,
  "\u2581check": 1320,
  "\u2581particular": 1321,
  "\u2581Other": 1322,
  "\u2581samym": 1323,
  "sza": 1324,
  "\u2581Stany": 1325,
  "tic": 1326,
  "\u2581Are": 1327,
  "\u2581head": 1328,
  "\u2581Ob": 1329,
  "\u2581kon": 1330,
  "\u2581zobaczy\u0107": 1331,
  "ier": 1332,
  "\u015b\u0107": 1333,
  "\u2581rzeczy": 1334,
  "\u2581swoj\u0105": 1335,
  "du": 1336,
  "--": 1337,
  "\u2581heart": 1338,
  "\u2581siebie": 1339,
  "\u2581address": 1340,
  "\u2581directly": 1341,
  "si": 1342,
  "\u2581large": 1343,
  "c\u0105": 1344,
  "\u2581swojego": 1345,
  "\u2581Germany": 1346,
  "les": 1347,
  "j\u0105cych": 1348,
  "bra": 1349,
  "\u2581Lo": 1350,
  "\u2581pomoc\u0105": 1351,
  "rod": 1352,
  "WE": 1353,
  "\u2581called": 1354,
  "\u2581u\u017cytkownika": 1355,
  "\u2581Saint": 1356,
  "\u2581m\u00f3j": 1357,
  "\u2581Information": 1358,
  "\u2581Da": 1359,
  "\u2581swoim": 1360,
  "owana": 1361,
  "\u2581nr": 1362,
  "con": 1363,
  "\u2581Komisja": 1364,
  "\u2581financial": 1365,
  "\u2581Uzyskaj": 1366,
  "\u2581zosta\u0142y": 1367,
  "\u2581instrukcji": 1368,
  "\u2581side": 1369,
  "\u2581legal": 1370,
  "\u2581Show": 1371,
  "\u2581bezpo\u015brednio": 1372,
  "\u2581Ar": 1373,
  "\u2581These": 1374,
  "\u2581energy": 1375,
  "\u2581Community": 1376,
  "ating": 1377,
  "\u2581bi": 1378,
  "\u2581prognoza": 1379,
  "\u2581non": 1380,
  "fi": 1381,
  "\u2581National": 1382,
  "\u2581niego": 1383,
  "\u017ce": 1384,
  "\u2581u\u017cywane": 1385,
  "\u2581ensure": 1386,
  "ri": 1387,
  "\u2581klient\u00f3w": 1388,
  "The": 1389,
  "\u2581Komisji": 1390,
  "\u2581Di": 1391,
  "\u2581social": 1392,
  "\u2581protection": 1393,
  "\u2581ask": 1394,
  "\u2581fact": 1395,
  "\u2581warto\u015bci": 1396,
  "\u2581making": 1397,
  "ran": 1398,
  "que": 1399,
  "\u2581beautiful": 1400,
  "\u2581Ni": 1401,
  "\u2581standard": 1402,
  "\u2581kraju": 1403,
  "\u2581produkcji": 1404,
  "\u2581w\u0142a\u015bnie": 1405,
  "\u2581Thank": 1406,
  "va": 1407,
  "\u2581View": 1408,
  "mar": 1409,
  "\u2581Find": 1410,
  "\u2581War": 1411,
  "vo": 1412,
  "\u2581zosta\u0142a": 1413,
  "\u2581short": 1414,
  "owa\u0142": 1415,
  "\u2581produkty": 1416,
  "\u2581Dlaczego": 1417,
  "\u2581ponad": 1418,
  "\u2581security": 1419,
  "\u2581problemy": 1420,
  "ho": 1421,
  "\u2581often": 1422,
  "ane": 1423,
  "\u2581rzecz": 1424,
  "\u2581darmo": 1425,
  "\u2581Okay": 1426,
  "ex": 1427,
  "lin": 1428,
  "\u2581t\u0119": 1429,
  "\u2581Good": 1430,
  "\u2581team": 1431,
  "\u2581dzia\u0142a": 1432,
  "\u2581natural": 1433,
  "):": 1434,
  "\u2581present": 1435,
  "\u2581management": 1436,
  "\u2581companies": 1437,
  "\u2581personelu": 1438,
  "\u2581several": 1439,
  "\u2581needs": 1440,
  "\u2581rooms": 1441,
  "\u2581understand": 1442,
  "\u2581programu": 1443,
  "\u2581won": 1444,
  "\u2581below": 1445,
  "sty": 1446,
  "e\u0144": 1447,
  "\u2581l": 1448,
  "\u2581miejsc": 1449,
  "\u2581prawo": 1450,
  "\u2581international": 1451,
  "\u2581Agoda": 1452,
  "\u2581buy": 1453,
  "\u2581Informacje": 1454,
  "\u2581given": 1455,
  "\u2581material": 1456,
  "\u2581read": 1457,
  "\u2581updates": 1458,
  "\",": 1459,
  "24": 1460,
  "bu": 1461,
  "\u2581University": 1462,
  "\u2581pogoda": 1463,
  "ise": 1464,
  "50": 1465,
  "\u2581Who": 1466,
  "\u2581pobra\u0107": 1467,
  "\u2581produktu": 1468,
  "\u2581Central": 1469,
  "\u2581line": 1470,
  "\u2581From": 1471,
  "\u2581ani": 1472,
  "\u2581third": 1473,
  "\u2581Here": 1474,
  "\u2581Se": 1475,
  "40": 1476,
  "\u2581aktualizacji": 1477,
  "\u2581troch\u0119": 1478,
  "\u2581solution": 1479,
  "\u2581da": 1480,
  "\u2581mo\u017cliwo\u015b\u0107": 1481,
  "\u2581nice": 1482,
  "\u2581Come": 1483,
  "\u2581Q": 1484,
  "so": 1485,
  "\u2581General": 1486,
  "ance": 1487,
  "\u2581je\u017celi": 1488,
  "\u2581meet": 1489,
  "\u2581America": 1490,
  "\u2581further": 1491,
  "\u2581Instrukcja": 1492,
  "\u2581May": 1493,
  "\u2581PC": 1494,
  "\u2581nigdy": 1495,
  "\u2581John": 1496,
  "12": 1497,
  "\u2581Red": 1498,
  "cza": 1499,
  "\u2581risk": 1500,
  "\u2581powiedzie\u0107": 1501,
  "\u2581yet": 1502,
  "ono": 1503,
  "io": 1504,
  "\u2581add": 1505,
  "\u2581report": 1506,
  "\u2581specific": 1507,
  "\u2581Add": 1508,
  "\u2581appropriate": 1509,
  "\u2581mo\u017cliwo\u015bci": 1510,
  "\u2581Snapshot": 1511,
  "\u2581ka\u017cdego": 1512,
  "\u2581economic": 1513,
  "ron": 1514,
  "\u2581Kingdom": 1515,
  "\u2581systems": 1516,
  "\u2581location": 1517,
  "\u2581kt\u00f3rego": 1518,
  "\u2581Kon": 1519,
  "\u2581told": 1520,
  "\u201d.": 1521,
  "\u2581kilku": 1522,
  "\u2581taken": 1523,
  "\u015bcie": 1524,
  "\u2581Mac": 1525,
  "\u2581Grand": 1526,
  "\u2581Online": 1527,
  "\u2581building": 1528,
  "\u25812012": 1529,
  "\u2581came": 1530,
  "\u2581przyk\u0142ad": 1531,
  "&": 1532,
  "\u25812019": 1533,
  "\u2581zawiera": 1534,
  "\u2581pomi\u0119dzy": 1535,
  "aj": 1536,
  "\u2581rozwoju": 1537,
  "\u2581Spa": 1538,
  "\u2581sites": 1539,
  "j\u0105ce": 1540,
  "op": 1541,
  "\u2581powinien": 1542,
  "way": 1543,
  "\u2581podstawie": 1544,
  "\u2581Roz": 1545,
  "\u2581PDF": 1546,
  "zi": 1547,
  "\u2581Gdzie": 1548,
  "\u2581najlepsze": 1549,
  "\u2581zdj\u0119cia": 1550,
  "\u2581above": 1551,
  "\u2581least": 1552,
  "\u2581create": 1553,
  "\u25812015": 1554,
  "\u2581Dianabol": 1555,
  "\u258121": 1556,
  "\u2581provides": 1557,
  "\u2581wyniki": 1558,
  "\u2581pa": 1559,
  "net": 1560,
  "\u2581category": 1561,
  "\u2581Tu": 1562,
  "\u2581Gra": 1563,
  "\u2581aplikacji": 1564,
  "\u2581space": 1565,
  "ji": 1566,
  "\u2581sam": 1567,
  "\u2581treatment": 1568,
  "\u2581German": 1569,
  "\u2581Prosz\u0119": 1570,
  "mm": 1571,
  "\u2581Bay": 1572,
  "\u2581top": 1573,
  "\u2581internetowej": 1574,
  "\u2581various": 1575,
  "\u2581date": 1576,
  "\u2581dotycz\u0105cych": 1577,
  "\u2581by\u0142ych": 1578,
  "\u2581zapewnia": 1579,
  "\u2581musisz": 1580,
  "\u25812013": 1581,
  "\u25812010": 1582,
  "\u2581result": 1583,
  "ac": 1584,
  "\u2581zostanie": 1585,
  "ism": 1586,
  "\u2581hard": 1587,
  "\u2581nothing": 1588,
  "\u2581ka": 1589,
  "11": 1590,
  "\u2581done": 1591,
  "\u2581posiada": 1592,
  "cha": 1593,
  "\u2581perfect": 1594,
  "60": 1595,
  "\u2581Then": 1596,
  "acj\u0119": 1597,
  "\u2581adres": 1598,
  "\u2581razy": 1599,
  "\u2581until": 1600,
  "\u2581lata": 1601,
  "\u2581lokalny": 1602,
  "\u2581Bi": 1603,
  "\u2581ochrony": 1604,
  "lan": 1605,
  "\u2581accordance": 1606,
  "\u2581Unii": 1607,
  "\u2581Teraz": 1608,
  "ast": 1609,
  "\u2581center": 1610,
  "\u2581measures": 1611,
  "\u2581Pre": 1612,
  "uj\u0119": 1613,
  "\u2581pomocy": 1614,
  "\u2581Rady": 1615,
  "\u2581cz\u0119\u015b\u0107": 1616,
  "\u2581Look": 1617,
  "sBase": 1618,
  "\u2581dzie\u0144": 1619,
  "\u2581sea": 1620,
  "men": 1621,
  "\u2581subject": 1622,
  "\u2581size": 1623,
  "ut": 1624,
  "\u2581post": 1625,
  "\u2581history": 1626,
  "\u2581kupi\u0107": 1627,
  "gra": 1628,
  "\u2581trzeba": 1629,
  "\u2581Used": 1630,
  "\u2581Android": 1631,
  "\u2581mapie": 1632,
  "\u2581Ri": 1633,
  "\u2581future": 1634,
  "\u2581doesn": 1635,
  "\u2581m\u00f3wi": 1636,
  "\u2581Pa": 1637,
  "\u2581uwag\u0119": 1638,
  "\u2581Photos": 1639,
  "\u2581Sz": 1640,
  "out": 1641,
  "\u2581discounts": 1642,
  "\u2581rok": 1643,
  "\u2581weight": 1644,
  "\u2581common": 1645,
  "\u2581Lake": 1646,
  "\u2581chc\u0119": 1647,
  "\u2581promocji": 1648,
  "\u2581taking": 1649,
  "\u2581general": 1650,
  "\u2581W\u0142ochy": 1651,
  "\u2581zar\u00f3wno": 1652,
  "sie": 1653,
  "zna": 1654,
  "\u2581enough": 1655,
  "\u2581lotnicze": 1656,
  "\u2581v": 1657,
  "\u2581kto": 1658,
  "kami": 1659,
  "\u2581Pa\u0144stwa": 1660,
  "ted": 1661,
  "vi": 1662,
  "kon": 1663,
  "\u2581star": 1664,
  "\u2581Tra": 1665,
  "\u2581grami": 1666,
  "\u258160": 1667,
  "\u2581Green": 1668,
  "\u2581modern": 1669,
  "\u2581become": 1670,
  "\u2581bad": 1671,
  "\u2581inter": 1672,
  "\u2581Y": 1673,
  "\u2581Du": 1674,
  "\u2581value": 1675,
  "\u2581wszystkim": 1676,
  "\u2581installation": 1677,
  "\u258122": 1678,
  "sk": 1679,
  "\u2581hours": 1680,
  "\u2581school": 1681,
  "\u2581basis": 1682,
  "\u2581Pe": 1683,
  "\u2581less": 1684,
  "\u2581spa": 1685,
  "\u2581pa\u0144stwa": 1686,
  "\u2581ona": 1687,
  "\u2581Polsce": 1688,
  "\u2581pa\u0144stw": 1689,
  "\u2581ludzie": 1690,
  "\u2581sterownik": 1691,
  "ob": 1692,
  "\u2581dr": 1693,
  "\u2581swojej": 1694,
  "\u2581situation": 1695,
  "\u2581men": 1696,
  "\u2581najlepszych": 1697,
  "\u2581Prognoza": 1698,
  "ap": 1699,
  "\u2581High": 1700,
  "\u2581Service": 1701,
  "ok": 1702,
  "\u2581weeks": 1703,
  "\u2581t": 1704,
  "owie": 1705,
  "\u2581sale": 1706,
  "\u2581nowych": 1707,
  "\u2581wzgl\u0119du": 1708,
  "\u2581bed": 1709,
  "\u2581wie": 1710,
  "\u2581took": 1711,
  "gu": 1712,
  "\u0142\u0105cz": 1713,
  "\u2581job": 1714,
  "\u2581En": 1715,
  "\u2581temperature": 1716,
  "\u2581dost\u0119p": 1717,
  "\u2581industry": 1718,
  "\u2581Of": 1719,
  "\u2581East": 1720,
  "\u2581del": 1721,
  "\u2581policy": 1722,
  "let": 1723,
  "\u2581zwi\u0105zane": 1724,
  "\u2581pierwszy": 1725,
  "\u2581leave": 1726,
  "\u2581li": 1727,
  "\u2581York": 1728,
  "\u2581pay": 1729,
  "\u2581Republic": 1730,
  "\u25812014": 1731,
  "\u2581total": 1732,
  "\u2581Dom": 1733,
  "\u2581war": 1734,
  "\u2581moje": 1735,
  "o\u015bci": 1736,
  "15": 1737,
  "\u2581activities": 1738,
  "\u2581choose": 1739,
  "\u2581sie": 1740,
  "\u2581Data": 1741,
  "ger": 1742,
  "\u2581certain": 1743,
  "ium": 1744,
  "\u2581private": 1745,
  "\u2581Sa": 1746,
  "\u2581face": 1747,
  "\u2581powietrza": 1748,
  "\u2581Center": 1749,
  "\u2581performance": 1750,
  "\u2581chce": 1751,
  "\u2581walk": 1752,
  "\u2581okay": 1753,
  "den": 1754,
  "\u2581Dlatego": 1755,
  "\u2581parking": 1756,
  "\u2581state": 1757,
  "rzy": 1758,
  "ali": 1759,
  "\u2581rozporz\u0105dzenia": 1760,
  "\u2581ca\u0142y": 1761,
  "\u2581question": 1762,
  "\u2581idealny": 1763,
  "\u2581customers": 1764,
  "80": 1765,
  "\u2581single": 1766,
  "\u2581Tanie": 1767,
  "\u2581low": 1768,
  "\u2581pozwala": 1769,
  "nika": 1770,
  "\u2581ka\u017cdy": 1771,
  "\u2581areas": 1772,
  "\u2581music": 1773,
  "\u2581osoby": 1774,
  "\u2581guy": 1775,
  "ley": 1776,
  "\u2581reason": 1777,
  "\u25812011": 1778,
  "he": 1779,
  "\u2581bezpiecze\u0144stwa": 1780,
  "\u2581requirements": 1781,
  "\u2581concerning": 1782,
  "\u2581Black": 1783,
  "\u2581Intel": 1784,
  "25": 1785,
  "\u2581young": 1786,
  "ujemy": 1787,
  "\u2581include": 1788,
  "ano": 1789,
  "\u2581en": 1790,
  "\u2581Su": 1791,
  "\u2581Art": 1792,
  "\u2581makes": 1793,
  "\u2581Sale": 1794,
  "ful": 1795,
  "\u2581solutions": 1796,
  "\u2581Live": 1797,
  "\u2581health": 1798,
  "\u2581global": 1799,
  "\u2581trzy": 1800,
  "j\u0105cy": 1801,
  "\u2581machine": 1802,
  "ft": 1803,
  "ville": 1804,
  "\u2581prawda": 1805,
  "\u2581wanted": 1806,
  "\u2581jednego": 1807,
  "\u2581friends": 1808,
  "\u2581Europejskiej": 1809,
  "\u2581sub": 1810,
  "\u2581mo": 1811,
  "\u2581Odtw\u00f3rz": 1812,
  "\u2581idea": 1813,
  "\u2581przedsi\u0119biorstw": 1814,
  "\u2581chodzi": 1815,
  "\u2581oznacza": 1816,
  "\u2581Villa": 1817,
  "\u2581Am": 1818,
  "\u2581complete": 1819,
  "\u2581du\u017co": 1820,
  "dziel": 1821,
  "ence": 1822,
  "\u2581cz\u0119sto": 1823,
  "\u2581Ciebie": 1824,
  "\u2581nadal": 1825,
  "\u2581blood": 1826,
  "nd": 1827,
  "onych": 1828,
  "\u2581dzisiaj": 1829,
  "\u2581Room": 1830,
  "\u2581Parliament": 1831,
  "\u25812009": 1832,
  "\u2581rodzaju": 1833,
  "star": 1834,
  "\u2581getting": 1835,
  "\u2581women": 1836,
  "\u2581Sony": 1837,
  "\u2581poni\u017cej": 1838,
  "\u2581dom": 1839,
  "\u2581b\u0119dziesz": 1840,
  "\u2581poza": 1841,
  "\u2581\u015bwiat": 1842,
  "\u2581Directive": 1843,
  "\u2581Strona": 1844,
  "\u2581town": 1845,
  "\u2581someone": 1846,
  "\u2581Ga": 1847,
  "tan": 1848,
  "\u2581Super": 1849,
  "\u2581mg": 1850,
  "ies": 1851,
  "\u2581once": 1852,
  "\u2581bit": 1853,
  "\u2581Love": 1854,
  "\u2581send": 1855,
  "\u2581quickly": 1856,
  "\u258123": 1857,
  "\u2581Museum": 1858,
  "\u2581Current": 1859,
  "\u2581Casino": 1860,
  "acje": 1861,
  "\u2581known": 1862,
  "zo": 1863,
  "time": 1864,
  "as": 1865,
  "\u2581\u015brodk\u00f3w": 1866,
  "\u2581Airbnb": 1867,
  "\u2581restauracji": 1868,
  "%": 1869,
  "\u2581urz\u0105dzenie": 1870,
  "\u2581position": 1871,
  "\u2581girl": 1872,
  "\u2581Read": 1873,
  "\u2581naszego": 1874,
  "kry": 1875,
  "\u2581cm": 1876,
  "\u2581Spain": 1877,
  "\u2581czego": 1878,
  "\u2581Atrakcje": 1879,
  "\u2581addition": 1880,
  "\u2581Restaurant": 1881,
  "\u2581professional": 1882,
  "\u2581\u015bwiata": 1883,
  "\u2581Up": 1884,
  "sion": 1885,
  "\u2581server": 1886,
  "\u2581field": 1887,
  "\u2581Centre": 1888,
  "\u2581amount": 1889,
  "ery": 1890,
  "eni": 1891,
  "\u2581jedno": 1892,
  "\u2581sz": 1893,
  "\u2581installed": 1894,
  "\u2581ex": 1895,
  "\u2581direct": 1896,
  "\u2581Per": 1897,
  "\u2581Power": 1898,
  "\u2581ka\u017cdym": 1899,
  "\u2581rules": 1900,
  "\u2581Pi": 1901,
  "\u2581spraw": 1902,
  "\u2581later": 1903,
  "\u2581cannot": 1904,
  "\u2581due": 1905,
  "\u25812008": 1906,
  "\u2581wody": 1907,
  "bar": 1908,
  "\u2581coming": 1909,
  "\u2581HD": 1910,
  "\u2581yourself": 1911,
  "\u2581Ra": 1912,
  "\u2581bank": 1913,
  "\u2581grupy": 1914,
  "\u2581Santa": 1915,
  "\u2581hundreds": 1916,
  "\u2581wraz": 1917,
  "mer": 1918,
  "gen": 1919,
  "ah": 1920,
  "\u2581office": 1921,
  "sze": 1922,
  "\u2581Berlin": 1923,
  "ino": 1924,
  "\u2581training": 1925,
  "\u2581powodu": 1926,
  "\u2581among": 1927,
  "\u2581video": 1928,
  "\u2581nast\u0119pnie": 1929,
  "port": 1930,
  "\u2581rights": 1931,
  "\u2581went": 1932,
  "\u2581listy": 1933,
  "\u2581\u017cywo": 1934,
  "\u2581nast\u0119puj\u0105ce": 1935,
  "\u2581link": 1936,
  "ks": 1937,
  "\u2581month": 1938,
  "\u2581Contact": 1939,
  "\u2581ka\u017cdej": 1940,
  "\u2581Ben": 1941,
  "gar": 1942,
  "\u2581Is": 1943,
  "\u2581$": 1944,
  "\u2581French": 1945,
  "\u2581le": 1946,
  "\u2581clean": 1947,
  "\u2581allows": 1948,
  "k\u0142ad": 1949,
  "any": 1950,
  "\u2581Warsaw": 1951,
  "*": 1952,
  "\u2581required": 1953,
  "gan": 1954,
  "cji": 1955,
  "\u258128": 1956,
  "\u2581Inne": 1957,
  "owanych": 1958,
  "\u2581connected": 1959,
  "\u2581Book": 1960,
  "\u2581dzi\u015b": 1961,
  "ally": 1962,
  "\u2581Things": 1963,
  "\u2581property": 1964,
  "\u2581niej": 1965,
  "\u2581zmiany": 1966,
  "\u2581moment": 1967,
  "\u2581son": 1968,
  "\u2581table": 1969,
  "\u2581cost": 1970,
  "for": 1971,
  "\u2581inform": 1972,
  "\u2581pe\u0142ni": 1973,
  "\u2581pronunciation": 1974,
  "\u2581technical": 1975,
  "\u2581technology": 1976,
  "\u2581hope": 1977,
  "\u2581Ban": 1978,
  "\u2581features": 1979,
  "\u2581father": 1980,
  "\u2581nowego": 1981,
  "\u2581phone": 1982,
  "mb": 1983,
  "\u2581transfer": 1984,
  "\u2581Ti": 1985,
  "tel": 1986,
  "\u2581cheap": 1987,
  "\u2581>>": 1988,
  "\u2581party": 1989,
  "\u2581review": 1990,
  "\u2581age": 1991,
  "ik": 1992,
  "\u2581pobyt": 1993,
  "\u2581(2)": 1994,
  "\u2581nocleg": 1995,
  "70": 1996,
  "\u2581100%": 1997,
  "\u2581czym": 1998,
  "\u2581else": 1999,
  "\u2581black": 2000,
  "\u2581naszym": 2001,
  "\u2581details": 2002,
  "\u2581jeste\u015bmy": 2003,
  "\u2581Design": 2004,
  "\u2581visit": 2005,
  "fe": 2006,
  "\u2581Street": 2007,
  "\u2581taki": 2008,
  "\u2581Ca": 2009,
  "\u2581fun": 2010,
  "\u2581clear": 2011,
  "hi": 2012,
  "\u2581Fa": 2013,
  "\u2581works": 2014,
  "mp": 2015,
  "\u2581URL": 2016,
  "sko": 2017,
  "ver": 2018,
  "\u2581Did": 2019,
  "\u2581zbyt": 2020,
  "\u2581screen": 2021,
  "\u2581Si": 2022,
  "\u2581stron": 2023,
  "\u2581increase": 2024,
  "\u2581jedn\u0105": 2025,
  "\u2581sorry": 2026,
  "\u2581sp": 2027,
  "\u2581miesi\u0119cy": 2028,
  "\u2581Polski": 2029,
  "\u2581energii": 2030,
  "\u2581dis": 2031,
  "\u2581oko\u0142o": 2032,
  "\u2581par": 2033,
  "\u2581Ba": 2034,
  "\u2581bada\u0144": 2035,
  "\u2581lepiej": 2036,
  "\u2581kar": 2037,
  "\u2581Masz": 2038,
  "\u2581Her": 2039,
  "\u2581sent": 2040,
  "\u2581issue": 2041,
  "\u2581actually": 2042,
  "\u2581m\u00f3g\u0142": 2043,
  "\u2581metal": 2044,
  "\u2581dlatego": 2045,
  "\u2581se": 2046,
  "\u2581according": 2047,
  "\u2581Bardzo": 2048,
  "\u2581users": 2049,
  "\u2581enjoy": 2050,
  "\u2581role": 2051,
  "\u2581Clenbuterol": 2052,
  "\u2581simple": 2053,
  "q": 2054,
  "\u2581komputera": 2055,
  "\u2581seen": 2056,
  "\u2581key": 2057,
  "\u2581EUR": 2058,
  "\u2581white": 2059,
  "\u2581h": 2060,
  "\u2581mother": 2061,
  "\u2581etc": 2062,
  "are": 2063,
  "kach": 2064,
  "\u2581Sea": 2065,
  "\u2581Tylko": 2066,
  "\u2581living": 2067,
  "\u2581child": 2068,
  "\u2581Deca": 2069,
  "\u2581HP": 2070,
  "\u2581pomoc": 2071,
  "\u2581effect": 2072,
  "\u2581Apartments": 2073,
  "\u2581central": 2074,
  "18": 2075,
  "\u2581Pobierz": 2076,
  "\u2581poziom": 2077,
  "\u258127": 2078,
  "\u2581Lotnisko": 2079,
  "\u2581holiday": 2080,
  "\u2581safe": 2081,
  "\u2581List": 2082,
  "\u2581woman": 2083,
  "\u2581super": 2084,
  "\u2581wrong": 2085,
  "\u258126": 2086,
  "\u2581Ne": 2087,
  "14": 2088,
  "\u2581region": 2089,
  "tki": 2090,
  "\u2581moim": 2091,
  "\u2581network": 2092,
  "\u2581Hi": 2093,
  "\u2581US": 2094,
  "\u2581individual": 2095,
  "y\u0107": 2096,
  "\u2581ca\u0142ym": 2097,
  "\u2581Station": 2098,
  "\u2581powiedzia\u0142": 2099,
  "\u2581Most": 2100,
  "\u2581Nowy": 2101,
  "\u2581environment": 2102,
  "skie": 2103,
  "\u2581media": 2104,
  "\u2581purchase": 2105,
  "\u2581Ze": 2106,
  "\u258164-": 2107,
  "era": 2108,
  "\u2581move": 2109,
  "\u2581przeciw": 2110,
  "\u2581stanowi": 2111,
  "\u2581ok": 2112,
  "\u2581wa\u017cne": 2113,
  "ita": 2114,
  "\u2581otworzy\u0107": 2115,
  "\u2581Chi": 2116,
  "lub": 2117,
  "\u2581trying": 2118,
  "\u2581200": 2119,
  "\u2581kt\u00f3r\u0105": 2120,
  "\u2581fat": 2121,
  "\u2581soon": 2122,
  "\u2581projektu": 2123,
  "\u2581okres": 2124,
  "\u2581sound": 2125,
  "\u2581effective": 2126,
  "BAR": 2127,
  "\u2581porz\u0105dku": 2128,
  "\u2581created": 2129,
  "ong": 2130,
  "\u2581respect": 2131,
  "13": 2132,
  "\u2581Los": 2133,
  "\u2581study": 2134,
  "\u2581knowledge": 2135,
  "\u2581zwi\u0105zku": 2136,
  "\u2581Rome": 2137,
  "\u2581manuals": 2138,
  "\u2581robi": 2139,
  "01": 2140,
  "\u2581uzyska\u0107": 2141,
  "\u2581click": 2142,
  "\u2581mo\u017cliwe": 2143,
  "ng": 2144,
  "uj\u0105c": 2145,
  "\u2581Jego": 2146,
  "\u2581processing": 2147,
  "\u2581analysis": 2148,
  "nu": 2149,
  "\u2581Apartment": 2150,
  "\u2581Mamy": 2151,
  "\u2581Australia": 2152,
  "\u2581Office": 2153,
  "\u2581His": 2154,
  "praw": 2155,
  "\u2581front": 2156,
  "ries": 2157,
  "\u2581proces": 2158,
  "\u2581Tw\u00f3j": 2159,
  "\u2581Last": 2160,
  "ham": 2161,
  "\u2581b\u0119d\u0119": 2162,
  "\u2581request": 2163,
  "\u0142a\u015b": 2164,
  "\u2581aktualne": 2165,
  "\u2581trip": 2166,
  "\u2581Au": 2167,
  "\u2581zmian": 2168,
  "\u2581badania": 2169,
  "side": 2170,
  "\u2581whether": 2171,
  "\u2581bus": 2172,
  "\u2581p\u00f3\u017aniej": 2173,
  "\u2581Because": 2174,
  "\u2581guys": 2175,
  "\u2581f": 2176,
  "\u2581Je": 2177,
  "\u2581About": 2178,
  "\u2581authorities": 2179,
  "\u2581web": 2180,
  "\u2581referred": 2181,
  "\u2581ha": 2182,
  "\u2581matter": 2183,
  "\u25812007": 2184,
  "\u2581dalej": 2185,
  "\u2581Jo": 2186,
  "our": 2187,
  "a\u015b": 2188,
  "\u2581share": 2189,
  "por": 2190,
  "pie": 2191,
  "\u2581Paris": 2192,
  "\u2581customer": 2193,
  "\u2581cel\u00f3w": 2194,
  "\u2581four": 2195,
  "\u2581jaki": 2196,
  "\u2581istnieje": 2197,
  "\u2581additional": 2198,
  "\u258131": 2199,
  "\u2581pu": 2200,
  "\u2581wed\u0142ug": 2201,
  "\u2581White": 2202,
  "\u2581pokoju": 2203,
  "\u2581friend": 2204,
  "\u2581Bank": 2205,
  "\u2581File": 2206,
  "\u2581Freemeteo": 2207,
  "\u2581cia\u0142a": 2208,
  "zu": 2209,
  "\u2581changes": 2210,
  "\u2581materials": 2211,
  "\u2581cel": 2212,
  "\u2581remember": 2213,
  "ish": 2214,
  "\u2581Wszystko": 2215,
  "\u2581wtedy": 2216,
  "\u2581powinny": 2217,
  "\u2581innymi": 2218,
  "\u2581options": 2219,
  "\u2581therefore": 2220,
  "\u2581r\u00f3\u017cne": 2221,
  "\u2581allow": 2222,
  "\u2581lot\u00f3w": 2223,
  "end": 2224,
  "\u2581wsp\u00f3\u0142pracy": 2225,
  "\u2581a\u017c": 2226,
  "\u2581nami": 2227,
  "\u2581sterownika": 2228,
  "\u2581dzia\u0142a\u0144": 2229,
  "16": 2230,
  "\u2581Barcelona": 2231,
  "AL": 2232,
  "\u2581speed": 2233,
  "\u2581hear": 2234,
  "tar": 2235,
  "\u2581questions": 2236,
  "\u2581worth": 2237,
  "\u2581zainstalowa\u0107": 2238,
  "\u2581ni\u0105": 2239,
  "\u2581jakie": 2240,
  "\u2581bring": 2241,
  "\u2581Price": 2242,
  "\u2581opis": 2243,
  "\u2581saw": 2244,
  "\u2581sytuacji": 2245,
  "tion": 2246,
  "\u2581designed": 2247,
  "\u2581setki": 2248,
  "@": 2249,
  "\u2581connection": 2250,
  "\u2581automatically": 2251,
  "\u2581Plus": 2252,
  "\u2581IP": 2253,
  "Ma": 2254,
  "Po": 2255,
  "\u2581either": 2256,
  "\u2581parts": 2257,
  "\u2581uwagi": 2258,
  "#": 2259,
  "\u2581projekt": 2260,
  "\u2581turn": 2261,
  "\u2581drive": 2262,
  "ura": 2263,
  "\u2581LED": 2264,
  "\u2581pierwsze": 2265,
  "\u2581Management": 2266,
  "\u2581instalacji": 2267,
  "\u2581skin": 2268,
  "90": 2269,
  "\u2581fine": 2270,
  "cych": 2271,
  "\u2581kto\u015b": 2272,
  "\u2581wp\u0142yw": 2273,
  "\u2581d\u0142ugo": 2274,
  "\u2581lu": 2275,
  "\u2581Sta": 2276,
  "\u2581selected": 2277,
  "\u2581pas": 2278,
  "\u2581jedynie": 2279,
  "\u2581President": 2280,
  "\u2581pe": 2281,
  "\u2581paper": 2282,
  "\u2581\u0142atwo": 2283,
  "\u2581effects": 2284,
  "\u2581tydzie\u0144": 2285,
  "ring": 2286,
  "par": 2287,
  "sto": 2288,
  "\u2581Samsung": 2289,
  "ps": 2290,
  "\u2581official": 2291,
  "\u2581Euro": 2292,
  "In": 2293,
  "\u2581Committee": 2294,
  "\u2581b\u0105d\u017a": 2295,
  "\u2581Wiem": 2296,
  "\u2581wcze\u015bniej": 2297,
  "\u2581cookies": 2298,
  "\u2581linii": 2299,
  "\u2581dead": 2300,
  "\u2581Bra": 2301,
  "\u2581event": 2302,
  "\u2581terms": 2303,
  "\u2581red": 2304,
  "fer": 2305,
  "pon": 2306,
  "Fi": 2307,
  "\u2581kontroli": 2308,
  "\u2581por\u00f3wnanie": 2309,
  "\u2581Wiesz": 2310,
  "\u2581County": 2311,
  "\u2581Some": 2312,
  "\u2581Tri": 2313,
  "bie": 2314,
  "owaniu": 2315,
  "ep": 2316,
  "\u2581wymaga": 2317,
  "\u2581udzia\u0142": 2318,
  "\u2581double": 2319,
  "\u2581zarz\u0105dzania": 2320,
  "ial": 2321,
  "\u2581park": 2322,
  "IN": 2323,
  "21": 2324,
  "\u2581port": 2325,
  "\u2581ready": 2326,
  "\u2581color": 2327,
  "\u2581sta\u0142o": 2328,
  "\u2581action": 2329,
  "\u2581decision": 2330,
  "\u2581trade": 2331,
  "\u2581telefon": 2332,
  "val": 2333,
  "\u2581responsible": 2334,
  "\u2581construction": 2335,
  "\u2581airport": 2336,
  "\u2581Games": 2337,
  "\u2581strona": 2338,
  "\u2581rest": 2339,
  "\u2581nature": 2340,
  "\u2581death": 2341,
  "su": 2342,
  "\u2581S\u0105": 2343,
  "\u2581si": 2344,
  "\u2581costs": 2345,
  "\u2581rate": 2346,
  "tal": 2347,
  "ven": 2348,
  "\u2581jako\u015b\u0107": 2349,
  "\u2581Great": 2350,
  "\u2581kill": 2351,
  "\u2581takim": 2352,
  "of": 2353,
  "\u2581implementation": 2354,
  "\u2581Garden": 2355,
  "\u2581Chc\u0119": 2356,
  "\u2581Open": 2357,
  "\u2581pi": 2358,
  "\u2581oprogramowania": 2359,
  "\u2581cooperation": 2360,
  "uk": 2361,
  "\u2581similar": 2362,
  "\u2581u\u017cytkownik\u00f3w": 2363,
  "\u2581dobre": 2364,
  "\u2581automatycznie": 2365,
  "\u2581save": 2366,
  "\u2581almost": 2367,
  "\u2581via": 2368,
  "\u2581Sam": 2369,
  "\u2581Bed": 2370,
  "\u2581Web": 2371,
  "\u2581Ponadto": 2372,
  "\u0142u": 2373,
  "\u2581wysokiej": 2374,
  "ste": 2375,
  "\u2581Microsoft": 2376,
  "\u2581interest": 2377,
  "EN": 2378,
  "ip": 2379,
  "wood": 2380,
  "\u2581dobry": 2381,
  "rz": 2382,
  "\u2581safety": 2383,
  "\u2581photos": 2384,
  "\u2581others": 2385,
  "\u2581wish": 2386,
  "tro": 2387,
  "\u2581hair": 2388,
  "\u2581Italian": 2389,
  "\u2581tw\u00f3j": 2390,
  "\u2581Program": 2391,
  "\u2581active": 2392,
  "\u2581outside": 2393,
  "\u2581Chcesz": 2394,
  "\u2581euro": 2395,
  "\u2581dobra": 2396,
  "\u258129": 2397,
  "\u2581wszyscy": 2398,
  "MA": 2399,
  "\u2581wind": 2400,
  "\u2581beach": 2401,
  "\u2581Water": 2402,
  "au": 2403,
  "\u2581presented": 2404,
  "\u2581luzu": 2405,
  "cal": 2406,
  "\u2581oil": 2407,
  "\u2581source": 2408,
  "\u2581Sch": 2409,
  "ING": 2410,
  "stan": 2411,
  "mon": 2412,
  "\u2581(1": 2413,
  "\u2581powinno": 2414,
  "\u2581pracownik\u00f3w": 2415,
  "17": 2416,
  "\u2581anti": 2417,
  "\u2581Special": 2418,
  "\u2581internet": 2419,
  "\u2581pewno": 2420,
  "\u2581types": 2421,
  "c\u00f3w": 2422,
  "\u2581recenzje": 2423,
  "\u2581jaki\u015b": 2424,
  "\u2581searches": 2425,
  "\u2581potrzeb": 2426,
  "\u2581baby": 2427,
  "\u2581Software": 2428,
  "\u2581cause": 2429,
  "\u2581prosz\u0119": 2430,
  "\u2581centre": 2431,
  "\u2581wybra\u0107": 2432,
  "\u2581Opis": 2433,
  "hu": 2434,
  "\u2581bio": 2435,
  "\u2581dlaczego": 2436,
  "\u2581Centrum": 2437,
  "\u2581played": 2438,
  "\u2581Western": 2439,
  "\u2581word": 2440,
  "\u2581along": 2441,
  "\u2581OK": 2442,
  "lon": 2443,
  "\u017a": 2444,
  "org": 2445,
  "\u2581lecz": 2446,
  "ola": 2447,
  "n\u0119": 2448,
  "\u2581Kategoria": 2449,
  "\u2581kontakt": 2450,
  "\u2581produkt": 2451,
  "\u2581!": 2452,
  "\u2581sprawdzi\u0107": 2453,
  "\u2581Wielka": 2454,
  "ities": 2455,
  "\u2581however": 2456,
  "\u2581w\u015br\u00f3d": 2457,
  "\u2581mn\u0105": 2458,
  "\u2581stron\u0119": 2459,
  "\u2581flight": 2460,
  "\u2581strong": 2461,
  "kra": 2462,
  "ale": 2463,
  "\u2581Poka\u017c": 2464,
  "IS": 2465,
  "\u2581Maybe": 2466,
  "ara": 2467,
  "\u2581happened": 2468,
  "\u2581true": 2469,
  "\u2581mniej": 2470,
  "\u2581Har": 2471,
  "\u2581devices": 2472,
  "\u2581email": 2473,
  "19": 2474,
  "\u2581gas": 2475,
  "\u2581Dodaj": 2476,
  "tek": 2477,
  "\u2581nowy": 2478,
  "\u2581Hilton": 2479,
  "\u2581impact": 2480,
  "\u2581tob\u0105": 2481,
  "\u2581cold": 2482,
  "\u2581cena": 2483,
  "\u2581\u015brodki": 2484,
  "\u2581road": 2485,
  "Durobolin": 2486,
  "\u2581return": 2487,
  "\u2581musz\u0105": 2488,
  "\u2581improve": 2489,
  "\u2581words": 2490,
  "\u2581Express": 2491,
  "ag": 2492,
  "\u2581wait": 2493,
  "\u2581entire": 2494,
  "\u2581First": 2495,
  "\u2581nasz\u0105": 2496,
  "\u2581Annex": 2497,
  "nt": 2498,
  "\u2581Gu": 2499,
  "\u2581Ex": 2500,
  "\u2581mocy": 2501,
  "\u2581Niemcy": 2502,
  "ization": 2503,
  "\u2013": 2504,
  "ten": 2505,
  "\u2581button": 2506,
  "\u2581average": 2507,
  "ize": 2508,
  "-1": 2509,
  "\u2581documents": 2510,
  "\u2581Ku": 2511,
  "22": 2512,
  "\u2581sa": 2513,
  "\u2581obecnie": 2514,
  "\u2581ch": 2515,
  "\u2581paragraph": 2516,
  "ros": 2517,
  "dra": 2518,
  "Zobacz": 2519,
  "\u2581odniesieniu": 2520,
  "\u2581Company": 2521,
  "\u2581choice": 2522,
  "\u2581latest": 2523,
  "\u2581Paul": 2524,
  "war": 2525,
  "\u25812.": 2526,
  "\u2581million": 2527,
  "\u2581al": 2528,
  "\u2581step": 2529,
  "\u2581members": 2530,
  "ada": 2531,
  "\u2581happy": 2532,
  "\u2581pokoje": 2533,
  "ide": 2534,
  "\u2581places": 2535,
  "\u2581vi": 2536,
  "\u2581wide": 2537,
  "\u2581okolicy": 2538,
  "i\u0105": 2539,
  "\u2581fire": 2540,
  "ker": 2541,
  "\u2581osobowych": 2542,
  "\u2581dzia\u0142alno\u015bci": 2543,
  "pad": 2544,
  "\u2581celem": 2545,
  "\u2581decyzji": 2546,
  "\u2581Gdy": 2547,
  "\u2581inside": 2548,
  "\u2581Game": 2549,
  "\u2581Ju\u017c": 2550,
  "TM": 2551,
  "\u2581Quality": 2552,
  "aj\u0105": 2553,
  "\u2581Brytania": 2554,
  "\u2581radio": 2555,
  "\u2581Gar": 2556,
  "\u2581Breakfast": 2557,
  "\u2581pogodowe": 2558,
  "\u2581Facebook": 2559,
  "\u2581Ad": 2560,
  "ice": 2561,
  "\u2581urz\u0105dze\u0144": 2562,
  "\u2581meeting": 2563,
  "\u2581Blue": 2564,
  "\u2581dodatkowe": 2565,
  "\u2581typ": 2566,
  "\u2581projects": 2567,
  "\u2581Details": 2568,
  "\u2581WiFi": 2569,
  "\u2581Mo\u017cna": 2570,
  "35": 2571,
  "aj\u0105c": 2572,
  "\u2581nasz": 2573,
  "\u2581podr\u00f3\u017c": 2574,
  "wa\u0142": 2575,
  "tin": 2576,
  "\u2581sir": 2577,
  "ther": 2578,
  "\u2581szczeg\u00f3lno\u015bci": 2579,
  "ory": 2580,
  "\u2581unique": 2581,
  "\u2581apply": 2582,
  "\u2581dost\u0119pu": 2583,
  "\u2581sprz\u0119tu": 2584,
  "\u2581samochod\u00f3w": 2585,
  "\u2581style": 2586,
  "\u2581Asus": 2587,
  "\u2581sprzeda\u017cy": 2588,
  "\u2581wieku": 2589,
  "\u2581Kar": 2590,
  "US": 2591,
  "\u2581niekt\u00f3rych": 2592,
  "\u2581firma": 2593,
  "\u2581Sha": 2594,
  "\u2581especially": 2595,
  "\u2581added": 2596,
  "\u2581Board": 2597,
  "\u2581wolna": 2598,
  "\u2581organ": 2599,
  "\u2581pressure": 2600,
  "\u2581easily": 2601,
  "\u2581operation": 2602,
  "und": 2603,
  "\u2581Inter": 2604,
  "\u2581document": 2605,
  "\u2581activity": 2606,
  "\u2581win": 2607,
  "\u2581comes": 2608,
  "\u2581su": 2609,
  "\u2581drzwi": 2610,
  "\u2581Gry": 2611,
  "ya": 2612,
  "wod": 2613,
  "\u25812006": 2614,
  "ig": 2615,
  "mie": 2616,
  "\u2581cases": 2617,
  "\u2581mojego": 2618,
  "\u2581Dobra": 2619,
  "\u2581receive": 2620,
  "\u25812005": 2621,
  "\u2581transportu": 2622,
  "\u2581rozwi\u0105zania": 2623,
  "\u2581lit": 2624,
  "\u2581suits": 2625,
  "\u2581jednej": 2626,
  "\u25813.": 2627,
  "\u2581Guest": 2628,
  "\u2581IT": 2629,
  "\u2581element": 2630,
  "\u2581fi": 2631,
  "\u2581Below": 2632,
  "\u2581fast": 2633,
  "AR": 2634,
  "\u2581zosta\u0142o": 2635,
  "\u2581Club": 2636,
  "\u2581programs": 2637,
  "\u2581watch": 2638,
  "nymi": 2639,
  "\u2581Rentals": 2640,
  "rad": 2641,
  "\u2581Twoje": 2642,
  "\u2581started": 2643,
  "ez": 2644,
  "jazd": 2645,
  "\u2581series": 2646,
  "\u2581Explorer": 2647,
  "\u2581sport": 2648,
  "\u2581mojej": 2649,
  "\u2581ltd": 2650,
  ".\u201d": 2651,
  "\u2581Nic": 2652,
  "\u2581currently": 2653,
  "\u2581July": 2654,
  "\u2581final": 2655,
  "lot": 2656,
  "\u2581events": 2657,
  "\u2581Pu": 2658,
  "field": 2659,
  "\u2581longer": 2660,
  "\u2581Close": 2661,
  "\u2581USB": 2662,
  "\u2581cz\u0142owieka": 2663,
  "\u2581hot": 2664,
  "\u2581applications": 2665,
  "\u2581procedure": 2666,
  "\u2581krwi": 2667,
  "\u2581Ser": 2668,
  "\u2581learn": 2669,
  "\u2581app": 2670,
  "\u2581Card": 2671,
  "\u2581Ru": 2672,
  "\u2581Fe": 2673,
  "lar": 2674,
  "\u2581news": 2675,
  "\u2581wiedzie\u0107": 2676,
  "\u2581du": 2677,
  "eli": 2678,
  "\u2581my\u015bli": 2679,
  "\u2581Russia": 2680,
  "\u2581upon": 2681,
  "\u2581Church": 2682,
  "stra": 2683,
  "\u2581numer": 2684,
  "\u2581land": 2685,
  "\u2581Chrome": 2686,
  "town": 2687,
  "\u2581weekend": 2688,
  "\u2581III": 2689,
  "\u2581kobiet": 2690,
  "win": 2691,
  "\u2581station": 2692,
  "\u2581mobile": 2693,
  "\u2581pool": 2694,
  "\u2581Wal": 2695,
  "\u2581Nale\u017cy": 2696,
  "nic": 2697,
  "\u2581Description": 2698,
  "\u2581Ok": 2699,
  "\u2581App": 2700,
  "\u2581Men": 2701,
  "\u2581article": 2702,
  "\u2581Ci\u0119": 2703,
  "\u2581original": 2704,
  "\u2581ca\u0142ej": 2705,
  "\u2581Bre": 2706,
  "\u2581included": 2707,
  "\u2581Evolin": 2708,
  "\u2581text": 2709,
  "\u2581patients": 2710,
  "\u25812004": 2711,
  "\u2581Christ": 2712,
  "\u2581method": 2713,
  "\u2581Start": 2714,
  "\u2581moc": 2715,
  "\u2581wynosi": 2716,
  "\u2581Product": 2717,
  "kom": 2718,
  "\u2581cut": 2719,
  "ren": 2720,
  "ER": 2721,
  "\u2581purpose": 2722,
  "\u2581talking": 2723,
  "\u2581Sto": 2724,
  "\u2581Fi": 2725,
  "\u2581properly": 2726,
  "ujesz": 2727,
  "\u2581Spanish": 2728,
  "ized": 2729,
  "fo": 2730,
  "\u2581Flights": 2731,
  "cz\u0105": 2732,
  "\u2581sob\u0105": 2733,
  "\u2581contains": 2734,
  "\u2581mar": 2735,
  "\u2581symbol": 2736,
  "\u2581pr": 2737,
  "\u2581immediately": 2738,
  "Re": 2739,
  "\u2581Francja": 2740,
  "\u2581twoje": 2741,
  "kar": 2742,
  "\u2581Long": 2743,
  "\u2581Real": 2744,
  "\u2581syn": 2745,
  "\u2581database": 2746,
  "\u2581stosowania": 2747,
  "\u2581moja": 2748,
  "\u2581prac\u0119": 2749,
  "\u2581Rock": 2750,
  "64": 2751,
  "\u2581Agriaffaires": 2752,
  "\u2581Poni\u017cej": 2753,
  "\u2581j\u0119zyk": 2754,
  "\u2581received": 2755,
  "ford": 2756,
  "\u2581June": 2757,
  "\u2581rozwi\u0105zanie": 2758,
  "j\u0105cego": 2759,
  "\u2581largest": 2760,
  "\u2581regard": 2761,
  "\u2581takiego": 2762,
  "\u2581stan": 2763,
  "\u2581t\u0105": 2764,
  "\u2581dwie": 2765,
  "\u2581dokument": 2766,
  "ical": 2767,
  "\u2581noc": 2768,
  "\u2581cz\u0142onkowskie": 2769,
  "\u2581CO": 2770,
  "\u2581five": 2771,
  "\u2581isn": 2772,
  "ward": 2773,
  "\u2581aid": 2774,
  "\u2581hurt": 2775,
  "\u2581possibility": 2776,
  "\u2581floor": 2777,
  "\u2581500": 2778,
  "\u2581Will": 2779,
  "\u2581Day": 2780,
  "owymi": 2781,
  "\u2581dok\u0142adnie": 2782,
  "\u2581ideal": 2783,
  "\u2581half": 2784,
  "\u2581razie": 2785,
  "\u2581Food": 2786,
  "\u2581uh": 2787,
  "\u2581Amsterdam": 2788,
  "\u2581Cha": 2789,
  "\u2581klienta": 2790,
  "\u2581August": 2791,
  "\u2581Court": 2792,
  "\u2581exchange": 2793,
  "nica": 2794,
  "\u2581przeszukuje": 2795,
  "\u2581Machine": 2796,
  "\u2581Mon": 2797,
  "d\u0119": 2798,
  "\u2581existing": 2799,
  "\u2581notice": 2800,
  "ans": 2801,
  "\u2581Africa": 2802,
  "ju": 2803,
  "23": 2804,
  "\u2581Have": 2805,
  "her": 2806,
  "\u2581lost": 2807,
  "day": 2808,
  "\u2581Jesus": 2809,
  "\u2581couple": 2810,
  "cu": 2811,
  "\u2581status": 2812,
  "26": 2813,
  "kie": 2814,
  "\u2581programme": 2815,
  "\u2581tomorrow": 2816,
  "\u2581Main": 2817,
  "chi": 2818,
  "acj\u0105": 2819,
  "ins": 2820,
  "\u2581j\u0119zyku": 2821,
  "\u2581tools": 2822,
  "\u2581nadziej\u0119": 2823,
  "sen": 2824,
  "\u2581rental": 2825,
  "\u2581Dobrze": 2826,
  "IT": 2827,
  "\u2581follow": 2828,
  "\u2581avoid": 2829,
  "ili": 2830,
  "\u2581sex": 2831,
  "\u2581chance": 2832,
  "\u2581brak": 2833,
  "\u2581damage": 2834,
  "\u2581airlines": 2835,
  "\u2581collection": 2836,
  "\u2581Network": 2837,
  "\u2581punkt": 2838,
  "\u2581quite": 2839,
  "\u2581np": 2840,
  "\u2581needed": 2841,
  "\u2581heard": 2842,
  "\u2581zapewni\u0107": 2843,
  "\u2581train": 2844,
  "\u2581shows": 2845,
  "\u2581Firefox": 2846,
  "ff": 2847,
  "\u2581Canada": 2848,
  "\u2581powierzchni": 2849,
  "\u2581King": 2850,
  "\u2581Thanks": 2851,
  "lic": 2852,
  "32": 2853,
  "ative": 2854,
  "\u2581pieni\u0105dze": 2855,
  "\u2581everyone": 2856,
  "\u2581facilities": 2857,
  "\u2581pytania": 2858,
  "\u2581ilo\u015bci": 2859,
  "To": 2860,
  "wal": 2861,
  "\u2581maybe": 2862,
  "\u2581says": 2863,
  "\u2581wygl\u0105da": 2864,
  "05": 2865,
  "\u2581glass": 2866,
  "\u2581Ju": 2867,
  "\u2581morning": 2868,
  "\u2581poziomie": 2869,
  "\u2581door": 2870,
  "unk": 2871,
  "\u2581bu": 2872,
  "\u2581fa": 2873,
  "\u2581fully": 2874,
  "\u2581wife": 2875,
  "des": 2876,
  "\u2581zasad": 2877,
  "\u2581(2": 2878,
  "\u2581uwa\u017ca": 2879,
  "\u2581Ver": 2880,
  "\u2581chyba": 2881,
  "\u2581podr\u00f3\u017cy": 2882,
  "\u2581\u017cadnych": 2883,
  "\u2581sto": 2884,
  "\u2581Gi": 2885,
  "\u2581Take": 2886,
  "\u2581Austria": 2887,
  "\u2581operating": 2888,
  "\u2581Therefore": 2889,
  "\u2581technologii": 2890,
  "\u2581Products": 2891,
  "\u2581image": 2892,
  "\u2581section": 2893,
  "ology": 2894,
  "\u2581innego": 2895,
  "\u2581card": 2896,
  "ability": 2897,
  "\u2581p\u00f3\u0142": 2898,
  "r\u0119": 2899,
  "\u2581pana": 2900,
  "\u2581rozszerzenia": 2901,
  "ES": 2902,
  "\u2581direction": 2903,
  "\u2581excellent": 2904,
  "\u2581multi": 2905,
  "\u2581wasn": 2906,
  "red": 2907,
  "\u2581Ameryki": 2908,
  "\u2581Hiszpania": 2909,
  "\u2581major": 2910,
  "\u2581znaczy": 2911,
  "\u2581simply": 2912,
  "\u2581creating": 2913,
  "LE": 2914,
  "\u258145": 2915,
  "\u2581cities": 2916,
  "\u2581wersji": 2917,
  "55": 2918,
  "\u2581update": 2919,
  "ction": 2920,
  "\u2581hell": 2921,
  "ship": 2922,
  "\u2581marketing": 2923,
  "uj\u0105ce": 2924,
  "w\u00f3r": 2925,
  "\u2581encyklopedia": 2926,
  "\u2581pages": 2927,
  "\u2581translated": 2928,
  "wi\u0105z": 2929,
  "art": 2930,
  "\u2581innym": 2931,
  "ani": 2932,
  "\u2581Wystarczy": 2933,
  "\u2581dyrektywy": 2934,
  "\u2581Russian": 2935,
  "\u2581Standard": 2936,
  "\u2581Ab": 2937,
  "\u2581select": 2938,
  "\u2581code": 2939,
  "nicy": 2940,
  "ual": 2941,
  "\u2581developed": 2942,
  "\u2581Kto": 2943,
  "\u2581ran": 2944,
  "\u2581considered": 2945,
  "i\u0142": 2946,
  "\u2581wideo": 2947,
  "\u2581protect": 2948,
  "\u2581welcome": 2949,
  "board": 2950,
  "45": 2951,
  "\u2581rodziny": 2952,
  "\u2581distance": 2953,
  "\u2581Town": 2954,
  "\u2581mieszka": 2955,
  "\u2581sta": 2956,
  "\u2581Europejskiego": 2957,
  "bel": 2958,
  "\u2581resources": 2959,
  "\u2581sk\u0142ada": 2960,
  "\u2581Bangkok": 2961,
  "\u2581dziedzinie": 2962,
  "\u2581message": 2963,
  "\u2581properties": 2964,
  "pt": 2965,
  "\u2581op": 2966,
  "\u2581dzia\u0142a\u0107": 2967,
  "\u2581kitchen": 2968,
  "dr": 2969,
  "\u2581TA": 2970,
  "\u2581roli": 2971,
  "\u2581Mor": 2972,
  "\u2581Royal": 2973,
  "low": 2974,
  "daw": 2975,
  "\u2581godzin": 2976,
  "ud": 2977,
  "\u2581Max": 2978,
  "\u2581Lord": 2979,
  "\u2581probably": 2980,
  "\u2581Ge": 2981,
  "\u2581asked": 2982,
  "\u2581Audio": 2983,
  "\u2581nazwa": 2984,
  "\u2581Jednak": 2985,
  "\u2581przegl\u0105darki": 2986,
  "\u2581Category": 2987,
  "\u2581okresie": 2988,
  "\u2581host": 2989,
  "\u2581spo": 2990,
  "\u2581Light": 2991,
  "\u2581sector": 2992,
  "\u2581pytanie": 2993,
  "ors": 2994,
  "\u2581completely": 2995,
  "\u2581Miejsce": 2996,
  "\u2581box": 2997,
  "wania": 2998,
  "\u2581answer": 2999,
  "\u2581tra": 3000,
  "\u2581trans": 3001,
  "\u2581polityki": 3002,
  "\u2581Two": 3003,
  "ata": 3004,
  "\u2581j\u0119zyka": 3005,
  "Show": 3006,
  "\u2581throughout": 3007,
  "\u2581Ch": 3008,
  "\u2581prawie": 3009,
  "\u2581widok": 3010,
  "bor": 3011,
  "\u2581issues": 3012,
  "king": 3013,
  "cho": 3014,
  "\u2581menu": 3015,
  "miesz": 3016,
  "\u2581appear": 3017,
  "isation": 3018,
  "\u2581knew": 3019,
  "\u2581hit": 3020,
  "\u2581Digital": 3021,
  "\u2581b\u0119dziemy": 3022,
  "\u2581zestaw": 3023,
  "\u2581Un": 3024,
  "\u2581political": 3025,
  "\u2581physical": 3026,
  "\u2581potrzeby": 3027,
  "owski": 3028,
  "\u2581Model": 3029,
  "\u2581Czech": 3030,
  "\u2581supply": 3031,
  "ral": 3032,
  "len": 3033,
  "\u2581Solve": 3034,
  "qui": 3035,
  "SA": 3036,
  "\u2581Services": 3037,
  "ica": 3038,
  "\u2581pok\u00f3j": 3039,
  "\u2581India": 3040,
  "\u2581class": 3041,
  "\u2581Bu": 3042,
  "\u2581garden": 3043,
  "\u2581electronic": 3044,
  "ec": 3045,
  "\u2581stand": 3046,
  "\u2581wanna": 3047,
  "\u2581function": 3048,
  "\u2581zasady": 3049,
  "\u2581alone": 3050,
  "\u2581Pa\u0144stwo": 3051,
  "\u2581School": 3052,
  "\u2581papier": 3053,
  "\u2581pocz\u0105tku": 3054,
  "\u2581Pen": 3055,
  "\u2581powinna": 3056,
  "-2": 3057,
  "vis": 3058,
  "\u2581exactly": 3059,
  "\u2581Kom": 3060,
  "\u2581points": 3061,
  "\u258180": 3062,
  "\u2581nazywa": 3063,
  "Co": 3064,
  "\u2581levels": 3065,
  "\u2581Pra": 3066,
  "EL": 3067,
  "\u2581Bal": 3068,
  "\u2581Video": 3069,
  "ov": 3070,
  "\u2581government": 3071,
  "\u2581Share": 3072,
  "\u2581robi\u0107": 3073,
  "\u2581umowy": 3074,
  "\u2581interesting": 3075,
  "mal": 3076,
  "\u2581die": 3077,
  "\u2581British": 3078,
  "\u2581kod": 3079,
  "\u2581Jeste\u015bmy": 3080,
  "\u2581contract": 3081,
  "\u2581UK": 3082,
  "\u2581break": 3083,
  "\u2581surface": 3084,
  "\u2581tablet": 3085,
  "\u2581chwili": 3086,
  "\u2581rent": 3087,
  "\u2581znajduj\u0105": 3088,
  "\u2581Nigdy": 3089,
  "\u2581wersja": 3090,
  "\u2581Boga": 3091,
  "ble": 3092,
  "\u2581River": 3093,
  "czu": 3094,
  "gro": 3095,
  "\u2581ryzyko": 3096,
  "\u2581dniu": 3097,
  "\u2581Szczeg\u00f3\u0142y": 3098,
  "\u2581fight": 3099,
  "\u2581Musz\u0119": 3100,
  "\u2581ziemi": 3101,
  "\u2581manufacturer": 3102,
  "\u2581languages": 3103,
  "\u2581dictionary": 3104,
  "\u2581wyb\u00f3r": 3105,
  "\u2581hands": 3106,
  "\u2581Travel": 3107,
  "\u2581ds": 3108,
  "\u2581blue": 3109,
  "\u2581problemu": 3110,
  "\u2581rozw\u00f3j": 3111,
  "\u2581Road": 3112,
  "\u2581plant": 3113,
  "\u2581gier": 3114,
  "\u2581program\u00f3w": 3115,
  "alne": 3116,
  "fu": 3117,
  "\u2581Mu": 3118,
  "\u2581obu": 3119,
  "\u2581lead": 3120,
  "\u2581Chyba": 3121,
  "\u2581\u015brodowiska": 3122,
  "\u2581board": 3123,
  "ding": 3124,
  "\u2581normal": 3125,
  "\u2581znacznie": 3126,
  "west": 3127,
  "\u2581Cor": 3128,
  "\u2581ko\u0144cu": 3129,
  "\u2581jobs": 3130,
  "\u2581lo": 3131,
  "\u2581Europie": 3132,
  "\u2581Ke": 3133,
  "\u2581includes": 3134,
  "28": 3135,
  "\u2581itp": 3136,
  "\u2581agreement": 3137,
  "\u2581browser": 3138,
  "\u2581established": 3139,
  "\u2581option": 3140,
  "\u2581Aktualna": 3141,
  "che": 3142,
  "\u2581g\u0142os": 3143,
  "don": 3144,
  "\u2581students": 3145,
  "\u2581CD": 3146,
  "\u2581Par": 3147,
  "\u2581relevant": 3148,
  "\u2581Ki": 3149,
  "led": 3150,
  "\u2581Plan": 3151,
  "\u2581pliki": 3152,
  "skiej": 3153,
  "\u2581built": 3154,
  "\u2581Las": 3155,
  "\u2581purposes": 3156,
  "\u2581doda\u0107": 3157,
  "\u2581continue": 3158,
  "\u2581zwi\u0119ksza": 3159,
  "\u2581basic": 3160,
  "\u2581pomaga": 3161,
  "02": 3162,
  "\u2581provisions": 3163,
  "\u2581requested": 3164,
  "\u2581300": 3165,
  "\u2581postaci": 3166,
  "\u2581cross": 3167,
  "\u2581Work": 3168,
  "\u2581strength": 3169,
  "\u2581rozwi\u0105za\u0144": 3170,
  "car": 3171,
  "\u2581miasto": 3172,
  "\u2581Bo\u017ce": 3173,
  "\u2581September": 3174,
  "\u2581equipped": 3175,
  "\u2581Puzzle": 3176,
  "\u2581comfortable": 3177,
  "\u2581saying": 3178,
  "ix": 3179,
  "ware": 3180,
  "PL": 3181,
  "\u2581obraz": 3182,
  "\u2581press": 3183,
  "\u2581blisko": 3184,
  "\u2581elements": 3185,
  "\u2581oceny": 3186,
  "bin": 3187,
  "\u2581bathroom": 3188,
  "\u2581Bur": 3189,
  "\u2581member": 3190,
  "27": 3191,
  "\u2581difficult": 3192,
  "st\u0119p": 3193,
  "\u2581Forum": 3194,
  "tru": 3195,
  "\u2581tool": 3196,
  "\u2581inny": 3197,
  "CA": 3198,
  "\u2581Mary": 3199,
  "\u2581Che": 3200,
  "\u2581self": 3201,
  "iz": 3202,
  "\u2581mia\u0142a": 3203,
  "\u2581story": 3204,
  "\u2581USD": 3205,
  "\u2581higher": 3206,
  "\u2581description": 3207,
  "ns": 3208,
  "\u2581Mini": 3209,
  "\u2581Hu": 3210,
  "\u2581wiadomo\u015bci": 3211,
  "\u2581ile": 3212,
  "\u2581Uh": 3213,
  "\u2581latach": 3214,
  "\u2581platform": 3215,
  "\u2581trzech": 3216,
  "\u2581po\u0142o\u017cony": 3217,
  "if": 3218,
  "\u2581Development": 3219,
  "\u2581pierwszym": 3220,
  "ight": 3221,
  "\u201d,": 3222,
  "\u2581force": 3223,
  "jo": 3224,
  "ora": 3225,
  "\u2581wam": 3226,
  "log": 3227,
  "\u2581takes": 3228,
  "\u2581realizacji": 3229,
  "\u2581touch": 3230,
  "\u2581lek": 3231,
  "\u2581gave": 3232,
  "br": 3233,
  "\u2581Hot": 3234,
  "\u2581morza": 3235,
  "\u2581Op": 3236,
  "\u2581potem": 3237,
  "NA": 3238,
  "\u2581oni": 3239,
  "\u2581para": 3240,
  "\u2581condition": 3241,
  "\u2581Security": 3242,
  "\u2581anyone": 3243,
  "\u00f3": 3244,
  "\u2581structure": 3245,
  "\u2581Podczas": 3246,
  "\u2581ml": 3247,
  "\u2581Check": 3248,
  "\u2581szczeg\u00f3lnie": 3249,
  "\u2581odpowiednie": 3250,
  "ME": 3251,
  "\u2581po\u0142\u0105czenia": 3252,
  "\u2581met": 3253,
  "\u2581payment": 3254,
  "\u2581pretty": 3255,
  "\u2581competition": 3256,
  "PS": 3257,
  "czne": 3258,
  "\u2581green": 3259,
  "\u2581Win": 3260,
  "\u2581prac": 3261,
  "\u2581Sport": 3262,
  "\u2581Test": 3263,
  "niki": 3264,
  "\u2581potential": 3265,
  "\u2581Master": 3266,
  "\u2581Help": 3267,
  "\u2581XP": 3268,
  "ure": 3269,
  "\u2581pomo\u017ce": 3270,
  "\u2581Map": 3271,
  "\u2581education": 3272,
  "\u2581Radio": 3273,
  "\u2581s\u0142owa": 3274,
  "\u2581usually": 3275,
  "\u2581Europy": 3276,
  "\u2581mini": 3277,
  "MS": 3278,
  "dz": 3279,
  "\u2581examples": 3280,
  "tyka": 3281,
  "\u2581loss": 3282,
  "\u2581eat": 3283,
  "\u2581Mozilla": 3284,
  "\u2581profile": 3285,
  "\u2581brand": 3286,
  "\u2581dziecko": 3287,
  "\u2581wymowa": 3288,
  "\u258190": 3289,
  "\u2581across": 3290,
  "\u2581daje": 3291,
  "31": 3292,
  "\u258135": 3293,
  "\u25812000": 3294,
  "\u2581wci\u0105\u017c": 3295,
  "\u2581Loty": 3296,
  "dal": 3297,
  "\u2581pie": 3298,
  "on\u0105": 3299,
  "OS": 3300,
  "\u2581Family": 3301,
  "\u2581Stay": 3302,
  "\u2581investment": 3303,
  "\u2581Lodge": 3304,
  "wor": 3305,
  "\u2581Vo": 3306,
  "\u2581kierunku": 3307,
  "\u2581Sun": 3308,
  "wia": 3309,
  "zer": 3310,
  "\u2581musz\u0119": 3311,
  "wa\u0107": 3312,
  "\u2581ca\u0142kowicie": 3313,
  "\u2581drink": 3314,
  "\u2581materia\u0142\u00f3w": 3315,
  "sz\u0105": 3316,
  "\u2581Toshiba": 3317,
  "\u2581unit": 3318,
  "\u2581Review": 3319,
  "75": 3320,
  "\u2581George": 3321,
  "\u2581styl": 3322,
  "\u2581opinion": 3323,
  "\u2581tickets": 3324,
  "\u2581Tre": 3325,
  "\u2581base": 3326,
  "\u2581groups": 3327,
  "\u2581organizacji": 3328,
  "06": 3329,
  "\u2581nimi": 3330,
  "\u2581Poniewa\u017c": 3331,
  "\u2581budget": 3332,
  "\u2581Chinese": 3333,
  "pol": 3334,
  "\u2581killed": 3335,
  "ymi": 3336,
  "czek": 3337,
  "\u2581carried": 3338,
  "\u2581steel": 3339,
  "\u2581Bad": 3340,
  "work": 3341,
  "\u2581chc\u0105": 3342,
  "PA": 3343,
  "\u2581approach": 3344,
  "\u2581Bezp\u0142atne": 3345,
  "\u2581concerned": 3346,
  "ture": 3347,
  "48": 3348,
  "\u2581ponownie": 3349,
  "sia": 3350,
  "niem": 3351,
  "ella": 3352,
  "Na": 3353,
  "\u2581zakres": 3354,
  "\u2581system\u00f3w": 3355,
  "\u2581recommend": 3356,
  "py": 3357,
  "\u2581goal": 3358,
  "\u2581pop": 3359,
  "\u2581list\u0119": 3360,
  "\u2581Province": 3361,
  "\u2581Ka\u017cdy": 3362,
  "\u2581Mark": 3363,
  "rus": 3364,
  "\u2581feature": 3365,
  "\u2581growth": 3366,
  "\u2581Music": 3367,
  "\u2581mowa": 3368,
  "Nie": 3369,
  "\u2581moj\u0105": 3370,
  "nik\u00f3w": 3371,
  "\u2581Like": 3372,
  "\u2581trakcie": 3373,
  "\u2581ram": 3374,
  "\u2581ca": 3375,
  "\u2581wi\u0119kszo\u015b\u0107": 3376,
  "\u2581Rozwi\u0105\u017c": 3377,
  "\u2581serwis": 3378,
  "\u2581values": 3379,
  "ite": 3380,
  "form": 3381,
  "\u2581happens": 3382,
  "\u2581greater": 3383,
  "\u2581opening": 3384,
  "\u2581encyclopedia": 3385,
  "ust": 3386,
  "\u2581poprawnie": 3387,
  "\u2581Jan": 3388,
  "AT": 3389,
  "\u2581happen": 3390,
  "\u2581running": 3391,
  "OR": 3392,
  "\u2581=": 3393,
  "\u2581Popular": 3394,
  "\u2581Cz": 3395,
  "\u2581Przed": 3396,
  "\u2581store": 3397,
  "\u2581eyes": 3398,
  "\u2581maszyn": 3399,
  "\u2581kraj\u00f3w": 3400,
  "light": 3401,
  "\u2581dopiero": 3402,
  "\u2581THE": 3403,
  "\u2581though": 3404,
  "\u2581opportunity": 3405,
  "\u2581dokument\u00f3w": 3406,
  "\u2581n": 3407,
  "\u2581prezent": 3408,
  "ph": 3409,
  "\u2581Agreement": 3410,
  "a\u017c": 3411,
  "\u2581odleg\u0142o\u015bci": 3412,
  "\u2581certainly": 3413,
  "\u2581cz\u0142onkowskich": 3414,
  "\u2581(3)": 3415,
  "\u2581dost\u0119pna": 3416,
  "\u2581farm": 3417,
  "MP": 3418,
  "\u2581dost\u0119pny": 3419,
  "skiego": 3420,
  "\u2581ku": 3421,
  "\u2581Suite": 3422,
  "\u2581communication": 3423,
  "\u2581Val": 3424,
  "\u2581signal": 3425,
  "\u2581Buy": 3426,
  "\u2581itself": 3427,
  "\u2581wsp\u00f3\u0142": 3428,
  "\u2581Comparison": 3429,
  "\u2581December": 3430,
  "oz": 3431,
  "\u2581taka": 3432,
  "\u2581convenient": 3433,
  "\u2581musia\u0142": 3434,
  "ris": 3435,
  "\u2581doctor": 3436,
  "Pa": 3437,
  "all": 3438,
  "\u2581items": 3439,
  "\u2581behind": 3440,
  "\u2581Bel": 3441,
  "\u2581meteo": 3442,
  "\u2581package": 3443,
  "\u2581Cal": 3444,
  "Do": 3445,
  "\u2581determine": 3446,
  "d\u017a": 3447,
  "\u2581showing": 3448,
  "\u2581attention": 3449,
  "c\u0119": 3450,
  "\u2581Er": 3451,
  "\u2581tyle": 3452,
  "\u2581Dress": 3453,
  "\u2581niniejszej": 3454,
  "\u2581Click": 3455,
  "\u2581significant": 3456,
  "\u2581znaczenie": 3457,
  "ero": 3458,
  "ari": 3459,
  "\u2581enter": 3460,
  "ible": 3461,
  "\u2581najmniej": 3462,
  "\u2581thanks": 3463,
  "cer": 3464,
  "\u2581Direct": 3465,
  "\u2581Zdj\u0119cia": 3466,
  "\u2581Auto": 3467,
  "\u2581Palace": 3468,
  "\u2581wynik\u00f3w": 3469,
  "owali": 3470,
  "\u2581charge": 3471,
  "set": 3472,
  "\u2581term": 3473,
  "wanie": 3474,
  "\u2581kids": 3475,
  "\u2581zastosowanie": 3476,
  "\u2581album": 3477,
  "\u0142\u0105": 3478,
  "\u2581wobec": 3479,
  "\u2581stock": 3480,
  "\u2581Przepraszam": 3481,
  "RO": 3482,
  "\u2581correct": 3483,
  "\u2581Right": 3484,
  "las": 3485,
  "\u2581myself": 3486,
  "\u2581minute": 3487,
  "\u2581capital": 3488,
  "\u2581act": 3489,
  "\u2581uruchomi\u0107": 3490,
  "\u2581Old": 3491,
  "\u2581cover": 3492,
  "\u2581Was": 3493,
  "room": 3494,
  "\u2581held": 3495,
  "\u2581Asia": 3496,
  "\u2581wouldn": 3497,
  "\u2581Any": 3498,
  "\u2581trwa": 3499,
  "\u2581uses": 3500,
  "\u2581\u017cyciu": 3501,
  "\u2581m\u0119\u017cczyzn": 3502,
  "\u017ca": 3503,
  "\u2581zanim": 3504,
  "nce": 3505,
  "li\u015bcie": 3506,
  "\u2581Mag": 3507,
  "\u2581niez": 3508,
  "roz": 3509,
  "\u2581warto": 3510,
  "\u2581IN": 3511,
  "top": 3512,
  "\u2581atrakcji": 3513,
  "\u2581ruch": 3514,
  "km": 3515,
  "\u2581credit": 3516,
  "\u2581info": 3517,
  "\u2581wyszukiwania": 3518,
  "\u2581Added": 3519,
  "\u2581sign": 3520,
  "\u2581pla\u017cy": 3521,
  "\u2581Dan": 3522,
  "\u2581kliknij": 3523,
  "\u2581methods": 3524,
  "\u2581zostan\u0105": 3525,
  "\u2581Dane": 3526,
  "\u2581min": 3527,
  "skich": 3528,
  "\u2581ASUS": 3529,
  "\u2581standards": 3530,
  "\u2581fucking": 3531,
  "\u2581persons": 3532,
  "\u2581du\u017ce": 3533,
  "press": 3534,
  "\u2581Powi\u0119kszanie": 3535,
  "prze": 3536,
  "\u2581Para": 3537,
  "ning": 3538,
  "\u2581sk\u0142ad": 3539,
  "\u2581Chiny": 3540,
  "\u2581miesi\u0105c": 3541,
  "\u2581Bro": 3542,
  "\u2581skorzysta\u0107": 3543,
  "\u2581rodzin": 3544,
  "\u2581wy\u0142\u0105cznie": 3545,
  "isz": 3546,
  "\u2581March": 3547,
  "\u2581klasy": 3548,
  "\u2581Musimy": 3549,
  "ef": 3550,
  "\u2581Number": 3551,
  "\u2581Apple": 3552,
  "\u2581zdrowia": 3553,
  "\u2581kor": 3554,
  "\u2581build": 3555,
  "\u2581do\u015b\u0107": 3556,
  "lt": 3557,
  "\u2581Sub": 3558,
  "\u2581focus": 3559,
  "\u2581Fort": 3560,
  "rio": 3561,
  "\u2581opinii": 3562,
  "zone": 3563,
  "\u2581J\u0119zyk": 3564,
  "\u2581Nawet": 3565,
  "\u2581Accommodation": 3566,
  "gue": 3567,
  "\u2581koszt": 3568,
  "\u2581culture": 3569,
  "\u2581boy": 3570,
  "\u2581success": 3571,
  "\u2581Naj": 3572,
  "nes": 3573,
  "\u2581jutro": 3574,
  "\u2581village": 3575,
  "illa": 3576,
  "berg": 3577,
  "\u2581develop": 3578,
  "CO": 3579,
  "fin": 3580,
  "\u2581prevent": 3581,
  "vin": 3582,
  "\u2581byli": 3583,
  "\u2581Europejska": 3584,
  "\u2581sort": 3585,
  "\u2581thinking": 3586,
  "\u2581$$": 3587,
  "\u2581ca\u0142ego": 3588,
  "RE": 3589,
  "han": 3590,
  "\u2581pr\u00f3b": 3591,
  "\u2581Browse": 3592,
  "tur": 3593,
  "\u2581historii": 3594,
  "\u2581speak": 3595,
  "\u2581\u015awiat": 3596,
  "\u2581Dar": 3597,
  "ra\u017c": 3598,
  "ld": 3599,
  "\u2581thank": 3600,
  "sha": 3601,
  "szuk": 3602,
  "\u2581Del": 3603,
  "\u2581brought": 3604,
  "\u2581drugiej": 3605,
  "\u2581visitors": 3606,
  "\u2581pami\u0119ta\u0107": 3607,
  "house": 3608,
  "\u2581ground": 3609,
  "\u2581Parking": 3610,
  "\u2581Motel": 3611,
  "\u2581limit": 3612,
  "\u2581nocy": 3613,
  "\u2581partners": 3614,
  "\u2581funkcji": 3615,
  "ification": 3616,
  "\u2581U\u017cytkownika": 3617,
  "\u2581narz\u0119dzi": 3618,
  "\u2581wybrane": 3619,
  "\u2581kolejny": 3620,
  "\u2581guarantee": 3621,
  "uj\u0105cych": 3622,
  "\u2581Technology": 3623,
  "\u2581Region": 3624,
  "\u2581umo\u017cliwia": 3625,
  "\u2581early": 3626,
  "\u2581News": 3627,
  "\u2581mog\u0142a": 3628,
  "\u0105c": 3629,
  "DE": 3630,
  "\u2581M\u00f3j": 3631,
  "\u2581Big": 3632,
  "\u2581Also": 3633,
  "\u2581lower": 3634,
  "\u258132": 3635,
  "not": 3636,
  "\u2581pacjent\u00f3w": 3637,
  "\u2581\u015a": 3638,
  "\u2581parties": 3639,
  "\u2581pewno\u015bci\u0105": 3640,
  "\u2581$$$": 3641,
  "cz\u0119": 3642,
  "\u2581Wybierz": 3643,
  "SE": 3644,
  "\u2581fakt": 3645,
  "sp": 3646,
  "\u25814-": 3647,
  "\u2581Notebook": 3648,
  "\u2581uda": 3649,
  "bal": 3650,
  "\u2581pobytu": 3651,
  "usz": 3652,
  "\u2581g\u0142\u00f3wna": 3653,
  "\u2581Cz\u0119sto": 3654,
  "\u2581kuchni": 3655,
  "\u2581medical": 3656,
  "\u2581musimy": 3657,
  "\u2581pick": 3658,
  "\u2581Tutaj": 3659,
  "\u2581guess": 3660,
  "\u2581przepis\u00f3w": 3661,
  "\u2581wants": 3662,
  "ade": 3663,
  "\u2581rz\u0105d": 3664,
  "\u2581koniec": 3665,
  "\u2581Friendly": 3666,
  "\u2581odpowiedni": 3667,
  "\u2581Cy": 3668,
  "use": 3669,
  "TA": 3670,
  "\u2581jedna": 3671,
  "\u2581cz": 3672,
  "\u2581sense": 3673,
  "07": 3674,
  "Pro": 3675,
  "\u2581wakacje": 3676,
  "stal": 3677,
  "\u2581Kor": 3678,
  "\u2581Londyn": 3679,
  "\u2581wzrost": 3680,
  "\u2581beginning": 3681,
  "\u2581breakfast": 3682,
  "\u2581extra": 3683,
  "\u2581PLN": 3684,
  "\u2581Airlines": 3685,
  "raz": 3686,
  "\u2581Peter": 3687,
  "\u2581zatem": 3688,
  "\u2581lotniska": 3689,
  "\u2581bezpiecze\u0144stwo": 3690,
  "\u2581pal": 3691,
  "\u2581i\u017c": 3692,
  "\u2581zale\u017cno\u015bci": 3693,
  "\u2581People": 3694,
  "lor": 3695,
  "\u2581Film": 3696,
  "\u2581towards": 3697,
  "\u2581ni": 3698,
  "\u2581rol": 3699,
  "\u2581Tom": 3700,
  "\u2581korzy\u015bci": 3701,
  "IP": 3702,
  "ab": 3703,
  "\u2581coraz": 3704,
  "\u25813-": 3705,
  "\u2581Photo": 3706,
  "lia": 3707,
  "\u2581kolor": 3708,
  "\u2581photo": 3709,
  "\u2581procesu": 3710,
  "\u2581wydaje": 3711,
  "\u2581problem\u00f3w": 3712,
  "\u2581i\u015b\u0107": 3713,
  "\u2581Nu": 3714,
  "\u2581monitor": 3715,
  "\u2581Fo": 3716,
  "\u2581goods": 3717,
  "\u2581brother": 3718,
  "uj\u0105cy": 3719,
  "\u2581Sex": 3720,
  "cjon": 3721,
  ");": 3722,
  "unt": 3723,
  "29": 3724,
  "\u2581chat": 3725,
  "\u2581Studio": 3726,
  "08": 3727,
  "kowe": 3728,
  "\u2581restaurant": 3729,
  "\u2581Color": 3730,
  "\u258170": 3731,
  "\u2581warunkami": 3732,
  "ST": 3733,
  "\u2581\u017c": 3734,
  "\u2581ga": 3735,
  "\u2581C\u00f3\u017c": 3736,
  "RA": 3737,
  "\u2581Michael": 3738,
  "\u2581kszta\u0142t": 3739,
  "\u2581Mal": 3740,
  "\u2581Pok\u00f3j": 3741,
  "\u2581p\u0142yn": 3742,
  "\u2581tax": 3743,
  "zor": 3744,
  "\u25812017:": 3745,
  "\u2581hold": 3746,
  "\u2581pictures": 3747,
  "burg": 3748,
  "\u2581Support": 3749,
  "wan": 3750,
  "\u2581late": 3751,
  "\u2581Near": 3752,
  "\u2581techniczne": 3753,
  "\u2581dosta\u0107": 3754,
  "\u2581recommended": 3755,
  "La": 3756,
  "\u2581exercise": 3757,
  "\u2581accept": 3758,
  "ou": 3759,
  "\u2581capacity": 3760,
  "\u2581January": 3761,
  "\u2581Select": 3762,
  "\u2581lack": 3763,
  "\u2581bilety": 3764,
  "eniem": 3765,
  "\u2581Camera": 3766,
  "\u2581England": 3767,
  "\u2581EN": 3768,
  "see": 3769,
  "wer": 3770,
  "TO": 3771,
  "\u2581drodze": 3772,
  "\u2581wygodne": 3773,
  "ens": 3774,
  "\u2581reach": 3775,
  "\u2581przyzna": 3776,
  "\u2581charakter": 3777,
  "\u2581booking": 3778,
  "\u2581selection": 3779,
  "\u2581sun": 3780,
  "\u2581picture": 3781,
  "\u2581Type": 3782,
  "ken": 3783,
  "\u2581April": 3784,
  "\u2581practice": 3785,
  "\u2581Only": 3786,
  "ions": 3787,
  "back": 3788,
  "\u2581zak\u0142ad": 3789,
  "\u2581Pat": 3790,
  "\u2581grup": 3791,
  "\u2581My\u015bl\u0119": 3792,
  "\u2581containing": 3793,
  "ria": 3794,
  "term": 3795,
  "\u2581arm": 3796,
  "\u2581Roman": 3797,
  "IC": 3798,
  "\u2581stage": 3799,
  "\u2581twoim": 3800,
  "\u2581Media": 3801,
  "\u2581dotyczy": 3802,
  "ET": 3803,
  "pu": 3804,
  "\u2581six": 3805,
  "\u2581attractions": 3806,
  "\u2581Greece": 3807,
  "\u2581najlepiej": 3808,
  "\u2581quiet": 3809,
  "\u2581Rezerwacja": 3810,
  "\u2581rates": 3811,
  "ich": 3812,
  "\u2581dzieje": 3813,
  "\u2581Mobile": 3814,
  "TS": 3815,
  "rt": 3816,
  "\u2581Use": 3817,
  "ct": 3818,
  "\u2581niniejszego": 3819,
  "\u2581supplement": 3820,
  "\u2581reasons": 3821,
  "\u2581truth": 3822,
  "\u2581looks": 3823,
  "\u2581Which": 3824,
  "\u2581\u015bw": 3825,
  "\u2581offered": 3826,
  "\u2581season": 3827,
  "\u2581przysz\u0142o\u015bci": 3828,
  "kin": 3829,
  "\u0142e": 3830,
  "\u2581Opcje": 3831,
  "SS": 3832,
  "2)": 3833,
  "\u2581Year": 3834,
  "\u2581zakupu": 3835,
  "\u2581Flat": 3836,
  "\u2581Plaza": 3837,
  "\u2581October": 3838,
  "\u2581samego": 3839,
  "\u2581przej\u015b\u0107": 3840,
  "ised": 3841,
  "\u2581Hill": 3842,
  "\u2581authority": 3843,
  "\u2581collect": 3844,
  "\u2581poziomu": 3845,
  "ile": 3846,
  "\u2581Mer": 3847,
  "cin": 3848,
  "\u2581accurate": 3849,
  "xi": 3850,
  "\u2581st\u0105d": 3851,
  "over": 3852,
  "\u2581audio": 3853,
  "\u2581reduction": 3854,
  "\u2581Prices": 3855,
  "\u2581Kliknij": 3856,
  "\u2581cz\u0142owiek": 3857,
  "\u2581Social": 3858,
  "\u2581Full": 3859,
  "\u2581David": 3860,
  "\u2581panel": 3861,
  "\u2581przeciwko": 3862,
  "\u2581listen": 3863,
  "\u2581trust": 3864,
  "\u2581turystyczne": 3865,
  "33": 3866,
  "l\u0119": 3867,
  "\u2581jakie\u015b": 3868,
  "ped": 3869,
  "\u2581restaurants": 3870,
  "\u2581Location": 3871,
  "\u2581Um": 3872,
  "van": 3873,
  "\u2581zabaw": 3874,
  "\u2581stuff": 3875,
  "\u2581Language": 3876,
  "ele": 3877,
  "jcie": 3878,
  "\u2581Very": 3879,
  "dia": 3880,
  "\u2581natychmiast": 3881,
  "\u2581Place": 3882,
  "AC": 3883,
  "\u2581forward": 3884,
  "\u2581xHamster": 3885,
  "\u2581associated": 3886,
  "\u2581Since": 3887,
  "\u2581regarding": 3888,
  "\u2581um": 3889,
  "j\u0105ca": 3890,
  "kcja": 3891,
  "ugh": 3892,
  "\u2581p\u0142atno\u015bci": 3893,
  "\u2581ilo\u015b\u0107": 3894,
  "\u2581remove": 3895,
  "\u2581MA": 3896,
  "\u2581sales": 3897,
  "\u2581display": 3898,
  "\u2581guest": 3899,
  "\u2581guide": 3900,
  "\u2581ISO": 3901,
  "\u2581fly": 3902,
  "\u2581Shi": 3903,
  "\u2581Tam": 3904,
  "\u2581Parlamentu": 3905,
  "mark": 3906,
  "stwo": 3907,
  "owano": 3908,
  "\u25814.": 3909,
  "\u2581Christmas": 3910,
  "\u2581shown": 3911,
  "\u2581Available": 3912,
  "\u2581atrakcje": 3913,
  "a\u0142em": 3914,
  "\u2581warto\u015b\u0107": 3915,
  "36": 3916,
  "\u2581Musisz": 3917,
  "\u2581kogo\u015b": 3918,
  "j\u0105cym": 3919,
  "\u2581convert": 3920,
  "\u2581CrazyBulk": 3921,
  "\u2581Vista": 3922,
  "\u2581noclegi": 3923,
  "\u2581B\u00f3g": 3924,
  "\u2581Tro": 3925,
  "\u2581Call": 3926,
  "\u2581specjalne": 3927,
  "\u2581foreign": 3928,
  "\u2581Cat": 3929,
  "\u2581czeka": 3930,
  "Ro": 3931,
  "\u2581shot": 3932,
  "\u2581highest": 3933,
  "\u2581internal": 3934,
  "\u2581wiedzy": 3935,
  "\u2581tygodniu": 3936,
  "\u2581Phone": 3937,
  "\u2581mogli": 3938,
  "\u2581According": 3939,
  "\u2581Ukraine": 3940,
  "\u2581Smart": 3941,
  "\u2581Jakie": 3942,
  "\u2581materia\u0142": 3943,
  "\u2581connecting": 3944,
  "100": 3945,
  "\u2581Control": 3946,
  "\u2581decided": 3947,
  "\u2581fish": 3948,
  "\u2581komputerze": 3949,
  "\u2581Gold": 3950,
  "\u2581Area": 3951,
  "owa\u0142a": 3952,
  "\u2581cen\u0119": 3953,
  "\u2581liczba": 3954,
  "\u2581Stock": 3955,
  "CH": 3956,
  "\u2581route": 3957,
  "\u2581panie": 3958,
  "\u2581Croatia": 3959,
  "\u2581Casa": 3960,
  "\u2581Dzi\u0119kuj\u0119": 3961,
  "wol": 3962,
  "\u2581positive": 3963,
  "\u2581pomys\u0142": 3964,
  "\u2581Chat": 3965,
  "\u2581Apartament": 3966,
  "\u2581involved": 3967,
  "ON": 3968,
  "vel": 3969,
  "\u2581engine": 3970,
  "\u2581Mont": 3971,
  "\u2581do\u015bwiadczenie": 3972,
  "\u2581match": 3973,
  "oli": 3974,
  "\u2581band": 3975,
  "\u2581Manager": 3976,
  "\u2581maximum": 3977,
  "\u2581Sign": 3978,
  "\u2581kg": 3979,
  "\u2581Post": 3980,
  "\u015bni": 3981,
  "niej": 3982,
  "ified": 3983,
  "czki": 3984,
  "\u2581stronach": 3985,
  "staw": 3986,
  "\u2581blog": 3987,
  "ser": 3988,
  "\u2581solid": 3989,
  "\u2581mal": 3990,
  "\u2581cele": 3991,
  "\u2581Flight": 3992,
  "\u2581hour": 3993,
  "\u2581satellite": 3994,
  "\u2581drogi": 3995,
  "\u2581ba": 3996,
  "EU": 3997,
  "\u2581Zjednoczonych": 3998,
  "\u2581u\u017cywa": 3999,
  "\u2581st": 4000,
  "\u2581maszyny": 4001,
  "\u2581delivery": 4002,
  "\u2581str": 4003,
  "[": 4004,
  "\u2581essential": 4005,
  "\u2581ju": 4006,
  "\u2581Wszyscy": 4007,
  "\u2581During": 4008,
  "\u2581Panel": 4009,
  "\u2581konieczne": 4010,
  "AS": 4011,
  "ee": 4012,
  "\u2581sleep": 4013,
  "\u2581niezb\u0119dne": 4014,
  "\u2581tro": 4015,
  "\u2581dy": 4016,
  "\u2581lipca": 4017,
  "\u2581lives": 4018,
  "\u2581ship": 4019,
  "\u2581Projekt": 4020,
  "\u2581themselves": 4021,
  "\u2581zwierz\u0105t": 4022,
  "\u2581Ya": 4023,
  "str": 4024,
  "my\u015bl": 4025,
  "\u0144ski": 4026,
  "\u2581disease": 4027,
  "\u2581Jack": 4028,
  "\u2581Maria": 4029,
  "\u2581liczby": 4030,
  "\u2581studies": 4031,
  "SP": 4032,
  "\u2581Zawsze": 4033,
  "ping": 4034,
  "\u2581Martin": 4035,
  "\u2581Brak": 4036,
  "sk\u0105": 4037,
  "book": 4038,
  "\u2581leading": 4039,
  "\u2581reference": 4040,
  "\u2581koszt\u00f3w": 4041,
  "\u2581Kontakt": 4042,
  "\u2581Mog\u0119": 4043,
  "ple": 4044,
  "a\u0142a": 4045,
  "\u2581termin": 4046,
  "\u2581Garcinia": 4047,
  "\u2581warm": 4048,
  "\u2581Life": 4049,
  "\u2581angielski": 4050,
  "\u2581rather": 4051,
  "\u2581Przez": 4052,
  "\u2581\u015bmierci": 4053,
  "\u2581historical": 4054,
  "\u2581Institute": 4055,
  "\u2581wyboru": 4056,
  "sco": 4057,
  "\u2581allowed": 4058,
  "eng": 4059,
  "\u2581cell": 4060,
  "\u2581Frankfurt": 4061,
  "can": 4062,
  "\u2581Series": 4063,
  "ette": 4064,
  "\u2581components": 4065,
  "\u2581Site": 4066,
  "\u2581Kan": 4067,
  "\u2581assessment": 4068,
  "\u2581suitable": 4069,
  "\u2581fair": 4070,
  "\u2581cz\u0119\u015bci\u0105": 4071,
  "\u2581krajach": 4072,
  "act": 4073,
  "\u2581Key": 4074,
  "\u2581wall": 4075,
  "\u2581Adam": 4076,
  "\u2581ro": 4077,
  "\u2581projekty": 4078,
  "\u2581Set": 4079,
  "cle": 4080,
  "LA": 4081,
  "\u2581adopted": 4082,
  "\u2581zmieni\u0107": 4083,
  "\u2581became": 4084,
  "LI": 4085,
  "\u2581Got": 4086,
  "\u2581Compare": 4087,
  "\u2581Even": 4088,
  "\u2581Wynajem": 4089,
  "\u2581kol": 4090,
  "\u2581processes": 4091,
  "\u2581deals": 4092,
  "daj": 4093,
  "\u2581Today": 4094,
  "\u2581interested": 4095,
  "with": 4096,
  "wa\u017c": 4097,
  "ala": 4098,
  "czna": 4099,
  "\u2581samochodu": 4100,
  "\u2581gives": 4101,
  "pan": 4102,
  "\u2581gone": 4103,
  "ini": 4104,
  "65": 4105,
  "\u2581serious": 4106,
  "\u2581samoch\u00f3d": 4107,
  "\u2581courses": 4108,
  "np": 4109,
  "\u2581Cho": 4110,
  "\u2581Residence": 4111,
  "\u2581Bus": 4112,
  "\u2581obejmuje": 4113,
  "shi": 4114,
  "\u2581duch": 4115,
  "\u2581Kra": 4116,
  "t\u00f3w": 4117,
  "rk": 4118,
  "\u2581150": 4119,
  "\u2581friendly": 4120,
  "MI": 4121,
  "\u2581increased": 4122,
  "\u2581ekran": 4123,
  "gin": 4124,
  "\u2581efficiency": 4125,
  "\u2581zw\u0142aszcza": 4126,
  "\u2581czyli": 4127,
  "\u2581monitoring": 4128,
  "\u2581tourist": 4129,
  "\u2581player": 4130,
  "\u2581Flash": 4131,
  "\u2581himself": 4132,
  "\u2581shape": 4133,
  "\u2581eye": 4134,
  "\u2581Panie": 4135,
  "\u2581przyjazne": 4136,
  "\u2581Taniec": 4137,
  "ktyw": 4138,
  "\u2581influence": 4139,
  "\u2581Oczywi\u015bcie": 4140,
  "\u2581drivers": 4141,
  "eg": 4142,
  "\u2581evening": 4143,
  "\u2581mass": 4144,
  "\u2581playing": 4145,
  "\u2581Rose": 4146,
  "n\u0105\u0107": 4147,
  "\u2581Gor": 4148,
  "ub": 4149,
  "\u2581Nasze": 4150,
  "iel": 4151,
  "\u2581przegl\u0105danie": 4152,
  "\u2581imi\u0119": 4153,
  "\u2581Global": 4154,
  "\u2581auto": 4155,
  "ci\u0105g": 4156,
  "lam": 4157,
  "\u2581digital": 4158,
  "\u00f3r": 4159,
  "\u2581round": 4160,
  "\u2581zobacz": 4161,
  "\u2581daughter": 4162,
  "\u2581commercial": 4163,
  "\u2581Puerto": 4164,
  "\u2581length": 4165,
  "\u2581grze": 4166,
  "\u00f3wki": 4167,
  "\u2581RE": 4168,
  "\u2581Double": 4169,
  "\u2581highly": 4170,
  "\u2581regular": 4171,
  "ations": 4172,
  "ED": 4173,
  "\u2581parents": 4174,
  "\u2581rodzaj": 4175,
  "\u2581seems": 4176,
  "mat": 4177,
  "\u2581zawartych": 4178,
  "\u2581wi\u0119kszo\u015bci": 4179,
  "\u2581providing": 4180,
  "\u2581jakim": 4181,
  "\u2581automatic": 4182,
  "\u2581gotta": 4183,
  "\u2581framework": 4184,
  "\u2581Bluetooth": 4185,
  "\u2581Back": 4186,
  "\u2581trend": 4187,
  "\u2581institutions": 4188,
  "\u2581complex": 4189,
  "\u2581ro\u015blin": 4190,
  "row": 4191,
  "ole": 4192,
  "g\u0142os": 4193,
  "\u2581bran\u017cy": 4194,
  "\u2581previous": 4195,
  "\u2581Mount": 4196,
  "\u2581przedstawia": 4197,
  "38": 4198,
  "\u2581pieni\u0119dzy": 4199,
  "asz": 4200,
  "\u2581nowa": 4201,
  "\u2581haven": 4202,
  "\u2581Zoom": 4203,
  "\u2581Min": 4204,
  "\u2581u\u017cyciu": 4205,
  "\u2581serwerze": 4206,
  "\u2581police": 4207,
  "\u2581export": 4208,
  "\u2581locations": 4209,
  "\u2581Frank": 4210,
  "\u2581chcia\u0142": 4211,
  "pas": 4212,
  "\u2581telewizor": 4213,
  "\u2581Oil": 4214,
  "\u25812020": 4215,
  "\u2581By\u0142": 4216,
  "\u2581Each": 4217,
  "\u2581Twoim": 4218,
  "robi": 4219,
  "UE": 4220,
  "\u2581street": 4221,
  "iv": 4222,
  "\u2581gra\u0142": 4223,
  "\u2581el": 4224,
  "\u2581Valley": 4225,
  "chod": 4226,
  "\u2581ra": 4227,
  "\u2581)": 4228,
  "\u2581meaning": 4229,
  "\u2581Wiki": 4230,
  "\u2581stylu": 4231,
  "lne": 4232,
  "\u2581kid": 4233,
  "\u2581rat": 4234,
  "\u2581Square": 4235,
  "r\u00f3w": 4236,
  "\u2581players": 4237,
  "\u2581twoja": 4238,
  "\u2581muscle": 4239,
  "onego": 4240,
  "ving": 4241,
  "wn": 4242,
  "\u2581warunk\u00f3w": 4243,
  "\u2581mom": 4244,
  "j\u0105c\u0105": 4245,
  "\u25811.0": 4246,
  "\u2581miejscowo\u015bci": 4247,
  "\u2581Muzeum": 4248,
  "\u2581studio": 4249,
  "\u2581Women": 4250,
  "\u2581Sal": 4251,
  "\u2581momencie": 4252,
  "\u2581Law": 4253,
  "\u2581expect": 4254,
  "\u2581daily": 4255,
  "\u2581Rate": 4256,
  "\u2581analizy": 4257,
  "\u2581produce": 4258,
  "cj\u0119": 4259,
  "\u2581pozna": 4260,
  "\u2581PRO": 4261,
  "\u2581cookie": 4262,
  "\u2581rozmiar": 4263,
  "gor": 4264,
  "\u015bmy": 4265,
  "\u2581Nice": 4266,
  "bro": 4267,
  "\u2581godziny": 4268,
  "tyki": 4269,
  "\u2581storage": 4270,
  "\u2581wyda": 4271,
  "ote": 4272,
  "\u2581coffee": 4273,
  "\u2581profil": 4274,
  "\u2581zaczyna": 4275,
  "\u2581ne": 4276,
  "\u2581serca": 4277,
  "\u2581logo": 4278,
  "\u2581elementy": 4279,
  "\u2581Welcome": 4280,
  "\u2581reform": 4281,
  "\u2581deliver": 4282,
  "\u2581Vacation": 4283,
  "\u2581Tor": 4284,
  "\u2581lose": 4285,
  "\u2581Box": 4286,
  "\u2581kobiety": 4287,
  "\u2581Warszawa": 4288,
  "\u2581useful": 4289,
  "\u2581pain": 4290,
  "\u2581Utility": 4291,
  "\u2581prowadzi": 4292,
  "\u2581Daj": 4293,
  "\u2581por\u00f3wnaniu": 4294,
  "\u2581Computer": 4295,
  "\u2581chcemy": 4296,
  "Mo": 4297,
  "\u2581traditional": 4298,
  "kolwiek": 4299,
  "\u2581SP": 4300,
  "\u2581oprogramowanie": 4301,
  "\u2581minimum": 4302,
  "patrz": 4303,
  "\u2581cat": 4304,
  "\u2581title": 4305,
  "\u2581response": 4306,
  "\u2581described": 4307,
  "\u2581Wie": 4308,
  "ew": 4309,
  "\u2581biznes": 4310,
  "\u2581paid": 4311,
  "\u2581jednocze\u015bnie": 4312,
  "\u2581pozycji": 4313,
  "\u2581niekt\u00f3re": 4314,
  "\u2581Public": 4315,
  "\u2581Mexico": 4316,
  "bs": 4317,
  "\u2581element\u00f3w": 4318,
  "\u2581Jako": 4319,
  "\u2581Mel": 4320,
  "\u2581opened": 4321,
  "\u2581log": 4322,
  "\u2581Mediterranean": 4323,
  "\u2581Rzym": 4324,
  "well": 4325,
  "\u2581u\u017cy\u0107": 4326,
  "szcz": 4327,
  "\u2581Glosbe": 4328,
  "\u2581Player": 4329,
  "\u2581shit": 4330,
  "onym": 4331,
  "\u2581MP": 4332,
  "\u2581secret": 4333,
  "\u2581environmental": 4334,
  "dor": 4335,
  "\u2581Over": 4336,
  "\u2581ability": 4337,
  "\u2581ad": 4338,
  "\u2581summer": 4339,
  "qua": 4340,
  "uch": 4341,
  "yl": 4342,
  "\u2581Skyscanner": 4343,
  "\u2581metr\u00f3w": 4344,
  "\u2581secure": 4345,
  "\u2581sygna\u0142": 4346,
  "\u2581Hall": 4347,
  "\u2581author": 4348,
  "\u2581Research": 4349,
  "\u2581m\u00f3wi\u0107": 4350,
  "\u2581aim": 4351,
  "\u2581girls": 4352,
  "hal": 4353,
  "\u2581goes": 4354,
  "\u2581steroid": 4355,
  "\u2581w\u0142os\u00f3w": 4356,
  "\u2581Decision": 4357,
  "\u2581okre\u015bla": 4358,
  "\u2581count": 4359,
  "99": 4360,
  "\u2581Transport": 4361,
  "03": 4362,
  "\u2581umiej\u0119tno\u015bci": 4363,
  "\u2581Part": 4364,
  "\u2581metody": 4365,
  "\u2581foot": 4366,
  "\u2581errors": 4367,
  "\u2581przypadkach": 4368,
  "tka": 4369,
  "bud": 4370,
  "\u2581mission": 4371,
  "200": 4372,
  "kr": 4373,
  "\u2581now\u0105": 4374,
  "\u2581Tell": 4375,
  "MO": 4376,
  "\u2581mode": 4377,
  "\u2581nowej": 4378,
  "\u2581koszty": 4379,
  "\u2581Cre": 4380,
  "dzenie": 4381,
  "kre\u015bl": 4382,
  "\u2581print": 4383,
  "\u2581path": 4384,
  "\u2581Multi": 4385,
  "\u2581sk\u00f3ry": 4386,
  "\u2581Cu": 4387,
  "\u2581ser": 4388,
  "04": 4389,
  "\u2581forum": 4390,
  "\u2581variety": 4391,
  "amy": 4392,
  "\u2581przede": 4393,
  "iki": 4394,
  "ID": 4395,
  "d\u0105": 4396,
  "mont": 4397,
  "\u2581Make": 4398,
  "\u2581g\u0142\u00f3wnie": 4399,
  "\u2581(19": 4400,
  "czka": 4401,
  "\u2581zesp\u00f3\u0142": 4402,
  "\u2581actions": 4403,
  "\u2581Vegetarian": 4404,
  "\u2581Twojego": 4405,
  "\u2581agent": 4406,
  "\u2581February": 4407,
  "\u2581zapewnienie": 4408,
  "\u2581Angeles": 4409,
  "\u2581diet": 4410,
  "\u2581Firmware": 4411,
  "arka": 4412,
  "wers": 4413,
  "CE": 4414,
  "\u2581lotniczych": 4415,
  "\u2581court": 4416,
  "\u2581praca": 4417,
  "\u2581korzysta\u0107": 4418,
  "\u2581Ile": 4419,
  "\u2581nieruchomo\u015bci": 4420,
  "\u2581Earth": 4421,
  "\u2581wszelkie": 4422,
  "\u2581Party": 4423,
  "\u2581sprawy": 4424,
  "\u2581limited": 4425,
  "\u2581supports": 4426,
  "\u2581Ve": 4427,
  "\u2581powiniene\u015b": 4428,
  "\u2581Ireland": 4429,
  "ase": 4430,
  "\u2581Rooms": 4431,
  "ama": 4432,
  "\u2581heat": 4433,
  "\u2581zaledwie": 4434,
  "czyn": 4435,
  "\u2581moich": 4436,
  "\u2581ple": 4437,
  "PC": 4438,
  "\u2581warte": 4439,
  "\u2581handle": 4440,
  "\u2581CE": 4441,
  "ash": 4442,
  "\u2581Land": 4443,
  "\u2581Produkty": 4444,
  "\u2581November": 4445,
  "\u2581apartments": 4446,
  "\u2581formie": 4447,
  "stos": 4448,
  "\u2581particularly": 4449,
  "\u2581ca\u0142\u0105": 4450,
  "\u2581write": 4451,
  "\u2581proposal": 4452,
  "cki": 4453,
  "\u2581Hand": 4454,
  "\u2581wood": 4455,
  "\u2581Project": 4456,
  "\u2581ru": 4457,
  "\u2581Monte": 4458,
  "\u2581Private": 4459,
  "\u2581covered": 4460,
  "\u2581Out": 4461,
  "\u2581waiting": 4462,
  "\u2581images": 4463,
  "85": 4464,
  "\u2581Dublin": 4465,
  "\u2581sh": 4466,
  "\u2581vehicle": 4467,
  "\u2581changed": 4468,
  "\u2581couldn": 4469,
  "\u2581benefits": 4470,
  "ena": 4471,
  "\u2581Minister": 4472,
  "\u2581mi\u0119\u015bni": 4473,
  "\u2581combination": 4474,
  "\u2581window": 4475,
  "\u2581kr\u00f3l": 4476,
  "\u2581background": 4477,
  "\u2581tygodnie": 4478,
  "\u2581import": 4479,
  "iczne": 4480,
  "\u2581w\u0142a\u015bciwo\u015bci": 4481,
  "\u2581zwykle": 4482,
  "\u2581W\u0142a\u015bnie": 4483,
  "pel": 4484,
  "\u2581Pas": 4485,
  "tak": 4486,
  "\u2581przestrzeni": 4487,
  "lat": 4488,
  "\u2581wypadku": 4489,
  "\u2581powy\u017cej": 4490,
  "\u2581wielo": 4491,
  "\u2581Satellite": 4492,
  "\u2581micro": 4493,
  "\u2581wsparcie": 4494,
  "\u2581Dodane": 4495,
  "\u2581ways": 4496,
  "az": 4497,
  "\u2581movement": 4498,
  "\u2581dog": 4499,
  "\u2581Powiedz": 4500,
  "\u2581ostatnich": 4501,
  "\u2581hostel": 4502,
  "\u2581zmniejsza": 4503,
  "\u2581jedzenie": 4504,
  "\u2581oczy": 4505,
  "\u2581published": 4506,
  "\u2581uzna": 4507,
  "\u2581partner\u00f3w": 4508,
  "\u2581Romantic": 4509,
  "\u2581Ol": 4510,
  "\u2581Chicago": 4511,
  "ord": 4512,
  "\u2581linie": 4513,
  "\u2581odpowiada": 4514,
  "bol": 4515,
  "gg": 4516,
  "\u25812002": 4517,
  "BA": 4518,
  "tter": 4519,
  "ric": 4520,
  "\u2581Head": 4521,
  "\u2581Country": 4522,
  "\u2581wysoko\u015bci": 4523,
  "\u2581reduce": 4524,
  "\u2581pokaz": 4525,
  "ela": 4526,
  "\u2581tried": 4527,
  "\u2581\u017cywno\u015bci": 4528,
  "\u2581compared": 4529,
  "\u2581prepared": 4530,
  "pos": 4531,
  "\u2581Niech": 4532,
  "\u2581wrze\u015bnia": 4533,
  "\u2581dose": 4534,
  "Are": 4535,
  "\u2581Uni": 4536,
  "\u2581zapewnienia": 4537,
  "\u2581rock": 4538,
  "\u2581Stop": 4539,
  "budowa": 4540,
  "\u2581worry": 4541,
  "\u2581Kong": 4542,
  "\u2581community": 4543,
  "\u2581Village": 4544,
  "\u25812003": 4545,
  "\u2581GE": 4546,
  "czn\u0105": 4547,
  "\u2581evidence": 4548,
  "\u2581Electric": 4549,
  "\u2581instrument": 4550,
  "\u2581czyste": 4551,
  "ico": 4552,
  "\u2581Wall": 4553,
  "DA": 4554,
  "\u2581sama": 4555,
  "off": 4556,
  "iny": 4557,
  "\u2581cool": 4558,
  "\u2581filtr": 4559,
  "\u2581osoba": 4560,
  "\u2581student": 4561,
  "\u2581Fu": 4562,
  "\u2581dzia\u0142anie": 4563,
  "\u2581agree": 4564,
  "\u2581Com": 4565,
  "\u2581przetwarzania": 4566,
  "\u2581ko\u0144ca": 4567,
  "\u2581Rada": 4568,
  "\u2581leczenia": 4569,
  "\u2581jazdy": 4570,
  "acz": 4571,
  "\u2581wniosek": 4572,
  "ev": 4573,
  "\u2581Comfort": 4574,
  "\u2581applicable": 4575,
  "\u2581Pani": 4576,
  "y\u0142": 4577,
  "kowa": 4578,
  "\u2581Striptease": 4579,
  "ney": 4580,
  "\u2581cia\u0142o": 4581,
  "\u2581Syn": 4582,
  "\u2581kolej": 4583,
  "42": 4584,
  "\u2581strategy": 4585,
  "hen": 4586,
  "\u2581fit": 4587,
  "\u2581animals": 4588,
  "aniu": 4589,
  "\u2581TO": 4590,
  "\u2581DE": 4591,
  "ciu": 4592,
  "\u2581record": 4593,
  "\u2581error": 4594,
  "NE": 4595,
  "\u2581ma\u0142e": 4596,
  "\u2581rol\u0119": 4597,
  "\u2581bieg": 4598,
  "\u2581instrukcj\u0119": 4599,
  "\u2581trouble": 4600,
  "\u2581pokazuje": 4601,
  "sing": 4602,
  "esz": 4603,
  "\u2581Dildo": 4604,
  "\u2581helpful": 4605,
  "\u2581Every": 4606,
  "\u2581Line": 4607,
  "\u2581Ona": 4608,
  "\u2581pomo\u017cemy": 4609,
  "34": 4610,
  "\u2581character": 4611,
  "\u2581zachowa\u0107": 4612,
  "\u2581copy": 4613,
  "sur": 4614,
  "\u2581born": 4615,
  "\u2581projekt\u00f3w": 4616,
  "\u2581Japan": 4617,
  "\u2581Large": 4618,
  "\u2581gaz": 4619,
  "\u2581pierwszej": 4620,
  "\u2581piosenki": 4621,
  "\u2581Sound": 4622,
  "\u2581zdj\u0119cie": 4623,
  "\u2581dziecka": 4624,
  "osa": 4625,
  "\u2581supposed": 4626,
  "\u2581regul": 4627,
  "\u2581rule": 4628,
  "IA": 4629,
  "\u2581opcji": 4630,
  "nny": 4631,
  "nki": 4632,
  "dol": 4633,
  "\u2581Lista": 4634,
  "\u2581zainstalowany": 4635,
  "\u2581Firma": 4636,
  "\u2581society": 4637,
  "\u2581Hong": 4638,
  "\u2581currency": 4639,
  "cznie": 4640,
  "\u2581Camp": 4641,
  "\u2581marki": 4642,
  "\u2581Darmowe": 4643,
  "\u2581procedures": 4644,
  "\u2581detailed": 4645,
  "46": 4646,
  "\u2581Robert": 4647,
  "\u2581Netherlands": 4648,
  "ants": 4649,
  "\u2581Premium": 4650,
  "\u2581bazy": 4651,
  "\u2581Ostrze\u017cenie": 4652,
  "500": 4653,
  "51": 4654,
  "ban": 4655,
  "37": 4656,
  "\u2581gain": 4657,
  "\u2581programy": 4658,
  "\u2581(4)": 4659,
  "\u2581kim": 4660,
  "\u2581forget": 4661,
  "ever": 4662,
  "\u2581Turkey": 4663,
  "mbo": 4664,
  "\u2581wymiany": 4665,
  "\u2581Dzieci": 4666,
  "\u2581island": 4667,
  "\u2581wzrostu": 4668,
  "\u2581klucz": 4669,
  "\u2581Health": 4670,
  "\u2581[...]": 4671,
  "\u2581actual": 4672,
  "\u2581Using": 4673,
  "\u2581Cap": 4674,
  "\u2581Ry": 4675,
  "\u2581ruchu": 4676,
  "\u2581kup": 4677,
  "\u2581sit": 4678,
  "\u2581severe": 4679,
  "\u2581fuck": 4680,
  "\u2581Indian": 4681,
  "\u2581podoba": 4682,
  "\u2581industrial": 4683,
  "oc": 4684,
  "\u2581Dancing": 4685,
  "\u2581uk\u0142ad": 4686,
  "ging": 4687,
  "stwa": 4688,
  "\u2581applied": 4689,
  "lny": 4690,
  "\u2581Hol": 4691,
  "\u2581Comments": 4692,
  "\u2581Middle": 4693,
  "\u2581Point": 4694,
  "\u2581czerwca": 4695,
  "\u2581Anti": 4696,
  "\u2581fan": 4697,
  "\u2581wzgl\u0119dem": 4698,
  "\u2581promote": 4699,
  "\u2581Eastern": 4700,
  "\u2581Blog": 4701,
  "\u2581Oto": 4702,
  "\u2581clients": 4703,
  "\u2581reklam": 4704,
  "\u2581Server": 4705,
  "09": 4706,
  "w\u00f3d": 4707,
  "\u258148": 4708,
  "\u2581worked": 4709,
  "\u2581god": 4710,
  "\u2581kolejnych": 4711,
  "\u2581PO": 4712,
  "\u2581Luxury": 4713,
  "\u2581dress": 4714,
  "\u2581u\u017cywa\u0107": 4715,
  "\u2581zewn\u0105trz": 4716,
  "\u2581Stan": 4717,
  "\u2581terenie": 4718,
  "\u2581compare": 4719,
  "\u2581zakup": 4720,
  "\u2581Realtek": 4721,
  "\u2581liczb\u0119": 4722,
  "\u2581benefit": 4723,
  "pp": 4724,
  "\u2581relationship": 4725,
  "\u2581population": 4726,
  "\u2581usun\u0105\u0107": 4727,
  "\u2581shop": 4728,
  "\u2581AC": 4729,
  "\u2581regional": 4730,
  "\u2581Warning": 4731,
  "We": 4732,
  "\u2581sometimes": 4733,
  "kr\u0119": 4734,
  "more": 4735,
  "\u2581Bio": 4736,
  "del": 4737,
  "\u2581Cam": 4738,
  "\u2581versions": 4739,
  "\u2581Sur": 4740,
  "\u2581Market": 4741,
  "\u2581require": 4742,
  "try": 4743,
  "kt": 4744,
  "\u2581becomes": 4745,
  "SC": 4746,
  "\u2581kom": 4747,
  "\u2581da\u0107": 4748,
  "\u2581wyniku": 4749,
  "\u2581Oferujemy": 4750,
  "duk": 4751,
  "\u2581Wood": 4752,
  "-4": 4753,
  "\u2581prysznic": 4754,
  "\u2581Mo\u017cemy": 4755,
  "?\"": 4756,
  "\u2581release": 4757,
  "61": 4758,
  "\u2581d\u017awi\u0119k": 4759,
  "95": 4760,
  "\u2581Wakacyjne": 4761,
  "\u2581anty": 4762,
  "cj\u0105": 4763,
  "tain": 4764,
  "ious": 4765,
  "\u2581Ce": 4766,
  "\u2581wystarczy": 4767,
  "\u2581Sir": 4768,
  "tr": 4769,
  "\u2581g\u00f3ry": 4770,
  "\u2581remain": 4771,
  "aw": 4772,
  "\u2581proste": 4773,
  "cent": 4774,
  "ika": 4775,
  "\u2581kobieta": 4776,
  "\u2581kierow": 4777,
  "\u2581Moje": 4778,
  "stone": 4779,
  "ments": 4780,
  "\u2581Van": 4781,
  "\u2581models": 4782,
  "\u2581pr\u0119dko\u015bci": 4783,
  "\u2581du\u017cy": 4784,
  "\u2581yeah": 4785,
  "\u2581podobne": 4786,
  "\u2581narz\u0119dzia": 4787,
  "ear": 4788,
  "\u2581systemie": 4789,
  "tyczne": 4790,
  "\u2581Castle": 4791,
  "\u2581written": 4792,
  "\u0142\u00f3w": 4793,
  "\u2581Em": 4794,
  "\u2581miesi\u0105ce": 4795,
  "\u2581giving": 4796,
  "\u2581Arm": 4797,
  "\u2581Odgrywanie": 4798,
  "\u2581spo\u0142eczno\u015bci": 4799,
  "\u2581niedo": 4800,
  "free": 4801,
  "\u2581While": 4802,
  "\u2581achieve": 4803,
  "\u2581wniosku": 4804,
  "\u2581gra\u0107": 4805,
  "j\u0105cej": 4806,
  "bli": 4807,
  "head": 4808,
  "tation": 4809,
  "\u2581u\u017cycia": 4810,
  "\u2581husband": 4811,
  "\u2581names": 4812,
  "\u2581rating": 4813,
  "\u2581joint": 4814,
  "\u2581Ah": 4815,
  "\u2581zale\u017cy": 4816,
  "\u2581decide": 4817,
  "\u2581lokalizacja": 4818,
  "\u2581stali": 4819,
  "\u2581employees": 4820,
  "375": 4821,
  "krzy": 4822,
  "\u2581dostaw": 4823,
  "\u2581James": 4824,
  "\u2581mi\u0119dzynarodowy": 4825,
  "nk": 4826,
  "\u2581fresh": 4827,
  "Wi": 4828,
  "DS": 4829,
  "\u2581Before": 4830,
  "\u2581dost\u0119pnych": 4831,
  "You": 4832,
  "\u2581korzystania": 4833,
  "-5": 4834,
  "now": 4835,
  "\u2581Order": 4836,
  "\u2581cu": 4837,
  "Za": 4838,
  "\u2581died": 4839,
  "\u2581external": 4840,
  "\u2581rich": 4841,
  "\u2581okre\u015blone": 4842,
  "\u2581concept": 4843,
  "\u2581ma\u0142y": 4844,
  "\u2581Act": 4845,
  "\u2581plikiem": 4846,
  "plan": 4847,
  "\u2581funkcja": 4848,
  "\u2581sukces": 4849,
  "\u2581leku": 4850,
  "pal": 4851,
  "\u2581domain": 4852,
  "\u2581Ocean": 4853,
  "\u2581impossible": 4854,
  "\u2581twojej": 4855,
  "\u2581sprz\u0119t": 4856,
  "tem": 4857,
  "old": 4858,
  "\u2581efekt": 4859,
  "\u2581przegl\u0105d": 4860,
  "\u2581led": 4861,
  "\u2581object": 4862,
  "\u2581Korea": 4863,
  "\u2581Collection": 4864,
  "\u2581thus": 4865,
  "\u2581planet": 4866,
  "\u2581Nazwa": 4867,
  "\u2581track": 4868,
  "\u2581shower": 4869,
  "\u2581treat": 4870,
  "\u2581g\u00f3r": 4871,
  "\u2581weak": 4872,
  "czny": 4873,
  "\u2581Page": 4874,
  "\u2581wonderful": 4875,
  "\u2581DLL": 4876,
  "\u2581PL": 4877,
  "\u2581competent": 4878,
  "fik": 4879,
  "\u2581Moja": 4880,
  "\u2581motor": 4881,
  "\u2581Jork": 4882,
  "\u2581perform": 4883,
  "\u2581Son": 4884,
  "\u2581por": 4885,
  "\u2581tonight": 4886,
  "kowy": 4887,
  "\u2581pogodowymi": 4888,
  "skim": 4889,
  "\u2581stanu": 4890,
  "\u2581wiadomo\u015b\u0107": 4891,
  "\u2581vehicles": 4892,
  "\u2581400": 4893,
  "\u2581Hej": 4894,
  "\u2581sports": 4895,
  "\u2581Nasz": 4896,
  "bus": 4897,
  "\u2581pe\u0142nym": 4898,
  "\u2581submitted": 4899,
  "\u2581pary": 4900,
  "\u2581odpowied\u017a": 4901,
  "\u2581Shop": 4902,
  "\u2581statistics": 4903,
  "\u2581Krakow": 4904,
  "\u2581wzi\u0105\u0107": 4905,
  "\u2581Milan": 4906,
  "\u2581powerful": 4907,
  "\u2581Mountain": 4908,
  "\u2581apartament": 4909,
  "\u2581wakacyjne": 4910,
  "\u2581separate": 4911,
  "\u2581waste": 4912,
  "\u2581economy": 4913,
  "ci\u0119": 4914,
  "\u2581che": 4915,
  "\u2581okre\u015blonych": 4916,
  "\u2581puzzle": 4917,
  "czenie": 4918,
  "\u2581masy": 4919,
  "\u2581sprawia": 4920,
  "\u2581availability": 4921,
  "\u2581dzie\u0107mi": 4922,
  "\u2581Naprawd\u0119": 4923,
  "\u2581Chin": 4924,
  "\u2581polski": 4925,
  "\u2581Store": 4926,
  "istic": 4927,
  "\u2581Policy": 4928,
  "\u2581Ltd": 4929,
  "ult": 4930,
  "\u2581Japanese": 4931,
  "\u2581Next": 4932,
  "\u2581club": 4933,
  "\u2581zrobi\u0142": 4934,
  "\u2581tekst": 4935,
  "\u2581whose": 4936,
  "\u2581Golf": 4937,
  "\u2581instrukcje": 4938,
  "\u2581najlepszy": 4939,
  "\u2581do\u015bwiadczenia": 4940,
  "\u2581Economic": 4941,
  "\u2581robisz": 4942,
  "\u2581Pet": 4943,
  "\u2581contain": 4944,
  "\u2581Report": 4945,
  "ists": 4946,
  "biera": 4947,
  "\u2581\u017be": 4948,
  "\u2581Acer": 4949,
  "\u2581fo": 4950,
  "\u2581przycisk": 4951,
  "\u2581Without": 4952,
  "\u2581numerous": 4953,
  "\u2581Beijing": 4954,
  "\u2581basen": 4955,
  "\u2581Grupa": 4956,
  "\u2581flow": 4957,
  "\u2581Dis": 4958,
  "stron": 4959,
  "\u2581Bri": 4960,
  "\u2581kart": 4961,
  "qu": 4962,
  "\u2581drop": 4963,
  "\u2581contents": 4964,
  "z\u0119": 4965,
  "rz\u0119d": 4966,
  "uri": 4967,
  "lep": 4968,
  "\u2581Official": 4969,
  "\u2581Nowa": 4970,
  "\u2581mapa": 4971,
  "\u2581hospital": 4972,
  "lew": 4973,
  "\u2581Sand": 4974,
  "49": 4975,
  "\u2581functions": 4976,
  "\u2581skills": 4977,
  "\u2581w\u0142asne": 4978,
  "\u2581\u017cyje": 4979,
  "\u2581grudnia": 4980,
  "\u2581links": 4981,
  "\u0105\u017c": 4982,
  "hr": 4983,
  "\u2581fall": 4984,
  "\u2581Apartamenty": 4985,
  "\u2581Pie": 4986,
  "long": 4987,
  "\u2581poli": 4988,
  "\u2581pozwoli": 4989,
  "\u2581EC": 4990,
  "\u2581Hamburg": 4991,
  "\u2581Mari": 4992,
  "dale": 4993,
  "ose": 4994,
  "\u2581OF": 4995,
  "\u2581\u015bwiat\u0142a": 4996,
  "\u2581nowo": 4997,
  "list": 4998,
  "\u2581machines": 4999,
  "\u2581Wyniki": 5000,
  "\u2581mine": 5001,
  "77": 5002,
  "\u2581stara": 5003,
  "\u2581ryzyka": 5004,
  "\u2581reports": 5005,
  "\u2581client": 5006,
  "\u2581Zo": 5007,
  "\u2581Va": 5008,
  "rza": 5009,
  "\u2581(3": 5010,
  "eu": 5011,
  "mor": 5012,
  "\u2581szuka": 5013,
  "si\u0119": 5014,
  "NG": 5015,
  "\u2581przepisy": 5016,
  "\u2581wyposa\u017cone": 5017,
  "\u2581250": 5018,
  "AM": 5019,
  "wierz": 5020,
  "\u2581oczywi\u015bcie": 5021,
  "\u2581Sprawd\u017a": 5022,
  "\u2581advantage": 5023,
  "\u2581pojawiaj\u0105": 5024,
  "ey": 5025,
  "\u2581otrzyma": 5026,
  "\u2581Sol": 5027,
  "\u2581motyw": 5028,
  "\u2581t\u0142uszczu": 5029,
  "\u2581Places": 5030,
  "nka": 5031,
  "\u2581Nasza": 5032,
  "tom": 5033,
  "\u2581metod": 5034,
  "ety": 5035,
  "\u2581wprowadza": 5036,
  "\u2581Trwa": 5037,
  "\u2581iPhone": 5038,
  "\u2581sister": 5039,
  "\u2581IV": 5040,
  "\u2581Les": 5041,
  "\u2581famous": 5042,
  "eta": 5043,
  "\u2581requires": 5044,
  "\u2581spend": 5045,
  "\u258136": 5046,
  "rap": 5047,
  "mel": 5048,
  "\u2581pis": 5049,
  "har": 5050,
  "\u2581huge": 5051,
  "De": 5052,
  "\u2581Gran": 5053,
  "\u2581extremely": 5054,
  "\u2581maja": 5055,
  "SI": 5056,
  "\u2581Name": 5057,
  "\u2581Stra": 5058,
  "\u2581ojciec": 5059,
  "\u2581Lot": 5060,
  "dll": 5061,
  "\u2581Inc": 5062,
  ">": 5063,
  "ista": 5064,
  "\u2581Under": 5065,
  "\u2581Anna": 5066,
  "PE": 5067,
  "\u2581nikt": 5068,
  "\u2581load": 5069,
  "\u2581historia": 5070,
  "\u015bmie": 5071,
  "o\u0142": 5072,
  "hy": 5073,
  "\u2581pewien": 5074,
  "\u2581Systems": 5075,
  "\u2581korzysta": 5076,
  "\u2581rejestr": 5077,
  "\u2581stored": 5078,
  "\u2581served": 5079,
  "ties": 5080,
  "ising": 5081,
  "\u2581laid": 5082,
  "\u2581alternative": 5083,
  "\u2581progress": 5084,
  "\u2581finansowych": 5085,
  "UPDATE": 5086,
  "56": 5087,
  "sis": 5088,
  "oo": 5089,
  "\u2581zna": 5090,
  "ath": 5091,
  "\u2581lamp": 5092,
  "\u2581Human": 5093,
  "\u2581Komisj\u0119": 5094,
  "\u2581Would": 5095,
  "\u2581czego\u015b": 5096,
  "\u2581mark": 5097,
  "\u2581Oferty": 5098,
  "\u2581placed": 5099,
  "\u2581producent\u00f3w": 5100,
  "\u2581bomb": 5101,
  "\u2581Tar": 5102,
  "\u2581Portugal": 5103,
  "\u2581wok\u00f3\u0142": 5104,
  "w\u0119": 5105,
  "kan": 5106,
  "\u2581Springs": 5107,
  "\u2581\u0142\u00f3\u017cka": 5108,
  "gad": 5109,
  "\u2581obtain": 5110,
  "\u2581stable": 5111,
  "\u2581szko\u0142y": 5112,
  "\u2581recent": 5113,
  "-3": 5114,
  "\u2581uwzgl\u0119dniaj\u0105c": 5115,
  "\u2581spr\u00f3bowa\u0107": 5116,
  "\u2581Czytaj": 5117,
  "mul": 5118,
  "\u2581advance": 5119,
  "\u2581Lokalizacja": 5120,
  "point": 5121,
  "\u2581scientific": 5122,
  "\u2581Metal": 5123,
  "dob": 5124,
  "\u2581District": 5125,
  "\u2581Rio": 5126,
  "\u2581cells": 5127,
  "\u2581000": 5128,
  "\u2581Mie": 5129,
  "\u2581views": 5130,
  "=": 5131,
  "\u2581tri": 5132,
  "\u2581kraj": 5133,
  "\u2581Twoja": 5134,
  "\u2581voice": 5135,
  "\u2581Bor": 5136,
  "\u2581BIOS": 5137,
  "\u2581draw": 5138,
  "\u2581VI": 5139,
  "\u2581zakwaterowania": 5140,
  "\u2581Watch": 5141,
  "\u2581serii": 5142,
  "\u2581Arab": 5143,
  "dan": 5144,
  "view": 5145,
  "\u2581Ball": 5146,
  "\u2581conference": 5147,
  "EM": 5148,
  "AN": 5149,
  "\u2581Ken": 5150,
  "\u2581dark": 5151,
  "\u2581Graphics": 5152,
  "\u2581Quick": 5153,
  "zan": 5154,
  "\u2581Ameryka": 5155,
  "\u2581mi\u0142o\u015bci": 5156,
  "\u2581czarny": 5157,
  "\u2581mi\u0119dzynarodowe": 5158,
  "m\u00f3wi": 5159,
  "\u2581tygodni": 5160,
  "\u2581dowiedzie\u0107": 5161,
  "\u2581stosowane": 5162,
  "\u2581expected": 5163,
  "\u2581Ed": 5164,
  "66": 5165,
  "dro": 5166,
  "ue": 5167,
  "\u2581comp": 5168,
  "\u2581registration": 5169,
  "owan\u0105": 5170,
  "\u2581servers": 5171,
  "alny": 5172,
  "\u2581powiedz": 5173,
  "\u2581Pri": 5174,
  "\u2581Mod": 5175,
  "\u2581wspiera": 5176,
  "\u2581Boutique": 5177,
  "\u2581pewne": 5178,
  "\u2581Us\u0142ugi": 5179,
  "\u2581przyjaci\u00f3\u0142": 5180,
  "\u2581Hampton": 5181,
  "a\u0144": 5182,
  "\u2581nast\u0119puj\u0105cych": 5183,
  "\u2581norm": 5184,
  "54": 5185,
  "af": 5186,
  "\u2581budynku": 5187,
  "\u2581Dam": 5188,
  "\u2581odpowiednio": 5189,
  "\u2581s\u0105d": 5190,
  "ius": 5191,
  "\u2581deep": 5192,
  "\u2581Ram": 5193,
  "\u2581carry": 5194,
  "\u2581Trans": 5195,
  "\u2581Department": 5196,
  "\u2581science": 5197,
  "onej": 5198,
  "\u2581preparation": 5199,
  "\u2581konto": 5200,
  "pe\u0142ni": 5201,
  "\u2581praktyk": 5202,
  "gon": 5203,
  "ai": 5204,
  "\u2581ho": 5205,
  "\u2581po\u0142\u0105czenie": 5206,
  "\u2581discover": 5207,
  "\u2581volume": 5208,
  "\u2581master": 5209,
  "\u2581programie": 5210,
  "\u2581PA": 5211,
  "\u2581cable": 5212,
  "\u2581comfort": 5213,
  "\u2581attack": 5214,
  "izing": 5215,
  "\u2581Cross": 5216,
  "\u2581blok": 5217,
  "\u2581starting": 5218,
  "rin": 5219,
  "\u2581usage": 5220,
  "\u2581Bridge": 5221,
  "39": 5222,
  "No": 5223,
  "RS": 5224,
  "IL": 5225,
  "\u2581piece": 5226,
  "\u2581context": 5227,
  "\u2581Treaty": 5228,
  "\u2581Steel": 5229,
  "\u2581feeling": 5230,
  "\u2581wygl\u0105d": 5231,
  "rd": 5232,
  "5%": 5233,
  "\u2581oferuj\u0105": 5234,
  "tworzy": 5235,
  "\u2581switch": 5236,
  "\u2581Typ": 5237,
  "\u2581sum": 5238,
  "\u2581steps": 5239,
  "\u2581cap": 5240,
  "\u2581najlepszego": 5241,
  "\u2581Islands": 5242,
  "\u2581produced": 5243,
  "\u2581criteria": 5244,
  "\u2581wykonane": 5245,
  "pre": 5246,
  "\u2581mieli": 5247,
  "\u2581prefer": 5248,
  "\u2581tobie": 5249,
  "\u2581item": 5250,
  "\u2581sweet": 5251,
  "\u2581rynek": 5252,
  "\u2581Menu": 5253,
  "rog": 5254,
  "\u2581Website": 5255,
  "\u2581dream": 5256,
  "\u2581bra": 5257,
  "\u2581stanowi\u0105": 5258,
  "\u2581Zbli\u017cenia": 5259,
  "AP": 5260,
  "tri": 5261,
  "\u2581zakwaterowanie": 5262,
  "\u2581ofiar": 5263,
  "\u2581seconds": 5264,
  "\u2581Fire": 5265,
  "\u2581wojny": 5266,
  "\u2581Phen": 5267,
  "\u2581Pomoc": 5268,
  "\u2581cars": 5269,
  "nek": 5270,
  "ssa": 5271,
  "\u2581chart": 5272,
  "ular": 5273,
  "\u2581appearance": 5274,
  "\u2581tytu\u0142": 5275,
  "\u2581dania": 5276,
  "aty": 5277,
  "\u2581Hold": 5278,
  "\u2581cultural": 5279,
  "\u2581mis": 5280,
  "\u2581drugi": 5281,
  "\u2581oferujemy": 5282,
  "\u2581Francisco": 5283,
  "\u2581towar": 5284,
  "\u2581register": 5285,
  "\u2581viewing": 5286,
  "tes": 5287,
  "\u2581internetowych": 5288,
  "\u2581AMD": 5289,
  "\u2581MO": 5290,
  "\u2581wsparcia": 5291,
  "\u2581Fund": 5292,
  "\u2581ideas": 5293,
  "\u2581zastosowania": 5294,
  "\u2581Vegas": 5295,
  "\u2581oparciu": 5296,
  "\u2581Rental": 5297,
  "\u2581Additional": 5298,
  "43": 5299,
  "\u2581gets": 5300,
  "ima": 5301,
  "\u2581pkt": 5302,
  "water": 5303,
  "\u2581difference": 5304,
  "\u2581block": 5305,
  "rob": 5306,
  "\u2581zasob\u00f3w": 5307,
  "\u2581lunch": 5308,
  "\u2581Mur": 5309,
  "\u2581patient": 5310,
  "\u2581Czemu": 5311,
  "\u2581proper": 5312,
  "\u2581Producenci": 5313,
  "\u2581anabolic": 5314,
  "cym": 5315,
  "\u2581kiedy\u015b": 5316,
  "stro": 5317,
  "czy\u0107": 5318,
  "\u2581forms": 5319,
  "300": 5320,
  "\u2581Sh": 5321,
  "puszcz": 5322,
  "\u2581freedom": 5323,
  "\u2581attempt": 5324,
  "\u2581objectives": 5325,
  "\u2581wk\u0142ad": 5326,
  "\u2581technologies": 5327,
  "\u2581sentences": 5328,
  "\u2581Kolor": 5329,
  "\u00b0": 5330,
  "\u2581Warto": 5331,
  "bio": 5332,
  "\u2581precipitation": 5333,
  "\u2581Os": 5334,
  "bezpiecz": 5335,
  "\u2581annual": 5336,
  "\u2581figure": 5337,
  "\u2581karty": 5338,
  "lit": 5339,
  "\u2581powie": 5340,
  "\u2581CA": 5341,
  "\u2581climate": 5342,
  "\u2581wyp": 5343,
  "\"?": 5344,
  "\u2581Kim": 5345,
  "\u2581popularne": 5346,
  "\u2581Washington": 5347,
  "dar": 5348,
  "lnych": 5349,
  "\u2581Pla": 5350,
  "\u2581End": 5351,
  "two": 5352,
  "alna": 5353,
  "\u2581tworzeniu": 5354,
  "tta": 5355,
  "r\u0105": 5356,
  "\u2581Pair": 5357,
  "\u2581PS": 5358,
  "\u2581Moscow": 5359,
  "52": 5360,
  "ition": 5361,
  "\u2581Agency": 5362,
  "\u2581\u00b0": 5363,
  "\u2581encourage": 5364,
  "\u2581scene": 5365,
  "\u2581Nowe": 5366,
  "\u2581begin": 5367,
  "68": 5368,
  "\u2581LG": 5369,
  "\u2581cy": 5370,
  "\u2581Gro": 5371,
  "CC": 5372,
  "\u2581twarz": 5373,
  "\u2581Opinie": 5374,
  "\u2581Porto": 5375,
  "/4": 5376,
  "\u2581kocha": 5377,
  "\u2581cz\u0142onk\u00f3w": 5378,
  "\u2581zwierz\u0119ta": 5379,
  "\u2581pole": 5380,
  "\u2581Natural": 5381,
  "cker": 5382,
  "mas": 5383,
  "\u2581jakby": 5384,
  "\u2581chwil\u0119": 5385,
  "\u2581sur": 5386,
  "\u2581reliable": 5387,
  "tech": 5388,
  "\u2581zespo\u0142u": 5389,
  "\u2581wiatr": 5390,
  "\u2581dad": 5391,
  "\u2581zdarza": 5392,
  "\u2581Han": 5393,
  "arki": 5394,
  "\u2581minimal": 5395,
  "air": 5396,
  "\u2581MS": 5397,
  "\u2581settings": 5398,
  "\u2581ring": 5399,
  "rc": 5400,
  "\u2581Christian": 5401,
  "\u2581istniej\u0105": 5402,
  "\u2581kur": 5403,
  "\u2581plus": 5404,
  "\u2581wykonania": 5405,
  "n\u0105\u0142": 5406,
  "\u2581by\u0142em": 5407,
  "\u2581zwrot": 5408,
  "\u2581drug": 5409,
  "\u2581Jeszcze": 5410,
  "ula": 5411,
  "\u2581gen": 5412,
  "\u2581lokalizacj\u0119": 5413,
  "cje": 5414,
  "\u2581flat": 5415,
  "\u2581church": 5416,
  "\u2581independent": 5417,
  "\u2581spraw\u0119": 5418,
  "41": 5419,
  "\u2581stress": 5420,
  "\u2581warunkach": 5421,
  "\u2581wewn\u0105trz": 5422,
  "dent": 5423,
  "\u2581Ste": 5424,
  "\u2581rozwija": 5425,
  "\u2581dwu": 5426,
  "\u2581wszelkich": 5427,
  "58": 5428,
  "\u2581Gda\u0144sk": 5429,
  "\u2581calls": 5430,
  "\u2581zdj\u0119\u0107": 5431,
  "\u2581po\u015brednictwem": 5432,
  "\u2581Europejski": 5433,
  "47": 5434,
  "\u2581b\u0142\u0119dy": 5435,
  "zon": 5436,
  "\u2581operations": 5437,
  "fon": 5438,
  "chu": 5439,
  "\u2581obiekcie": 5440,
  "pi\u0119": 5441,
  "\u2581olej": 5442,
  "lik": 5443,
  "\u2581turned": 5444,
  "\u2581Twitter": 5445,
  "\u2581Festival": 5446,
  "letni": 5447,
  "\u2581pa\u017adziernika": 5448,
  "\u2581Tur": 5449,
  "\u258133": 5450,
  "\u2581factory": 5451,
  "\u2581chemical": 5452,
  "\u2581translation": 5453,
  "\u2581wine": 5454,
  "\u2581dostarcza": 5455,
  "ady": 5456,
  "ons": 5457,
  "met": 5458,
  "\u2581sin": 5459,
  "\u2581zapewni": 5460,
  "EX": 5461,
  "\u2581folder": 5462,
  "\u2581ster": 5463,
  "\u2581numbers": 5464,
  "\u2581odnaleziony": 5465,
  "\u2581stacji": 5466,
  "\u2581Golden": 5467,
  "\u2581connect": 5468,
  "\u2581seks": 5469,
  "ida": 5470,
  "\u2581Prague": 5471,
  "\u2581Laptop": 5472,
  "\u2581Association": 5473,
  "\u2581Podany": 5474,
  "tens": 5475,
  "\u2581Cambogia": 5476,
  "tyczna": 5477,
  "\u2581operacyjny": 5478,
  "\u2581Kt\u00f3re": 5479,
  "\u2581ca\u0142e": 5480,
  "\u2581zda\u0144": 5481,
  "\u2581peace": 5482,
  "\u2581zapytaniu": 5483,
  "ownik": 5484,
  "\u2581OS": 5485,
  "cra": 5486,
  "\u2581Single": 5487,
  "\u2581Father": 5488,
  "\u2581obszarze": 5489,
  "\u2581Update": 5490,
  "ably": 5491,
  "\u2581opad\u00f3w": 5492,
  "\u2581Listen": 5493,
  "\u2581efficient": 5494,
  "\u2581mieszkanie": 5495,
  "CT": 5496,
  "\u2581bezpo\u015bredni": 5497,
  "\u258130%": 5498,
  "\u00f3d": 5499,
  "\u2581units": 5500,
  "\u2581prior": 5501,
  "zji": 5502,
  "var": 5503,
  "\u2581Israel": 5504,
  "He": 5505,
  "\u2581s\u0142ucha": 5506,
  "\u2581interes": 5507,
  "\u2581dedicated": 5508,
  "\u2581Pary\u017c": 5509,
  "\u2581solve": 5510,
  "\u2581Queen": 5511,
  "tte": 5512,
  "\u2581mi\u0142o\u015b\u0107": 5513,
  "\u2581Switzerland": 5514,
  "\u2581odbywa": 5515,
  "\u2581Equipment": 5516,
  "\u2581Bookings": 5517,
  "OL": 5518,
  "\u2581distribution": 5519,
  "\u0144skiego": 5520,
  "\u2581responsibility": 5521,
  "\u2581Comp": 5522,
  "\u2581Electronics": 5523,
  "\u2581t\u0142umaczenia": 5524,
  "nij": 5525,
  "\u2581ball": 5526,
  "\u2581handlu": 5527,
  "\u2581funkcje": 5528,
  "og": 5529,
  "\u2581bag": 5530,
  "\u2581niebieski": 5531,
  "\u2581Kol": 5532,
  "\u2581procedury": 5533,
  "\u2581History": 5534,
  "\u2581offering": 5535,
  "\u2581sztuki": 5536,
  "\u2581opt": 5537,
  "\u2581GPS": 5538,
  "\u2581SE": 5539,
  "\u2581Spraw": 5540,
  "\u2581wieczorem": 5541,
  "\u2581Tele": 5542,
  "\u2581ce": 5543,
  "\u2581j\u0119zyk\u00f3w": 5544,
  "\u2581Energy": 5545,
  "\u2581otrzyma\u0107": 5546,
  "\u2581Guide": 5547,
  "bre": 5548,
  "44": 5549,
  "\u2581Team": 5550,
  "\u2581Vienna": 5551,
  "\u2581zwraca": 5552,
  "\u2581kop": 5553,
  "\u2581Greek": 5554,
  "vent": 5555,
  "\u2581Kraj": 5556,
  "\u2581obiekt": 5557,
  "\u2581Krak\u00f3w": 5558,
  "\u2581pi\u0119kne": 5559,
  "\u2581Ros": 5560,
  "\u2581Hourly": 5561,
  "\u2581\u017ceby\u015b": 5562,
  "ned": 5563,
  "ien": 5564,
  "\u0119k": 5565,
  "\u2581osobowe": 5566,
  "ological": 5567,
  "\u2581Ber": 5568,
  "\u2581DVD": 5569,
  "gl": 5570,
  "\u2581Access": 5571,
  "\u0105cych": 5572,
  "AD": 5573,
  "\u2581citizens": 5574,
  "puszcza": 5575,
  "\u2581Palm": 5576,
  "\u2581Canon": 5577,
  "\u2581Philips": 5578,
  "\u2581zaleca": 5579,
  "\u2581setting": 5580,
  "gna": 5581,
  "\u2581internetu": 5582,
  "\u2581Manufacturers": 5583,
  "\u2581Far": 5584,
  "\u2581pa\u0144stwo": 5585,
  "\u2581pilot": 5586,
  "ax": 5587,
  "\u2581wy\u0142\u0105cz": 5588,
  "\u2581maintenance": 5589,
  "\u2581protein": 5590,
  "\u2581easier": 5591,
  "\u2581Yu": 5592,
  "\u2581ES": 5593,
  "\u2581Fair": 5594,
  "\u2581laser": 5595,
  "\u2581afraid": 5596,
  "\u2581dinner": 5597,
  "\u2581rodzaje": 5598,
  "\u2581lines": 5599,
  "\u2581Baby": 5600,
  "\u2581dzia\u0142": 5601,
  "\u2581Domy": 5602,
  "\u2581fruit": 5603,
  "\u2581Save": 5604,
  "yn": 5605,
  "rn": 5606,
  "\u2581kultury": 5607,
  "dle": 5608,
  "\u2581caused": 5609,
  "\u2581wykaz": 5610,
  "\u2581yes": 5611,
  "table": 5612,
  "\u2581cztery": 5613,
  "\u2581seem": 5614,
  "\u2581Wol": 5615,
  "\u2581\u015b": 5616,
  "Le": 5617,
  "\u2581Code": 5618,
  "TE": 5619,
  "\u2581wynika": 5620,
  "\u2581wybierz": 5621,
  "fr": 5622,
  "\u2581Refrigerator": 5623,
  "\u2581resolution": 5624,
  "\u2581Artyku\u0142": 5625,
  "ux": 5626,
  "\u2581consider": 5627,
  "\u2581daleko": 5628,
  "\u2581gun": 5629,
  "\u2581polega": 5630,
  "\u2581wiatru": 5631,
  "ick": 5632,
  "nc": 5633,
  "t\u0119": 5634,
  "\u2581pra": 5635,
  "\u2581danego": 5636,
  "ify": 5637,
  "UR": 5638,
  "\u2581Kam": 5639,
  "\u2581jak\u0105": 5640,
  "\u2581historyczne": 5641,
  "\u2581spis": 5642,
  "\u2581twojego": 5643,
  "eria": 5644,
  "\u2581mod": 5645,
  "\u2581instead": 5646,
  "\u201c": 5647,
  "\u2581Although": 5648,
  "\u2581etap": 5649,
  "ches": 5650,
  "\u2581sta\u0107": 5651,
  "(1)": 5652,
  "prac": 5653,
  "\u2581Such": 5654,
  "\u2581zazwyczaj": 5655,
  "\u2581zdanie": 5656,
  "chodzi": 5657,
  "\u2581Mid": 5658,
  "\u2581Many": 5659,
  "\u2581helps": 5660,
  "\u2581odda": 5661,
  "\u2581assistance": 5662,
  "\u2581prop": 5663,
  "test": 5664,
  "\u2581target": 5665,
  "\u2581command": 5666,
  "\u2581artyku\u0142": 5667,
  "\u2581takiej": 5668,
  "sad": 5669,
  "\u2581gold": 5670,
  "\u2581Bag": 5671,
  "\u2581gene": 5672,
  "ese": 5673,
  "\u2581wiz": 5674,
  "\u2581DC": 5675,
  "\u2581Budapest": 5676,
  "\u2581strategii": 5677,
  "\u2581mentioned": 5678,
  "dza": 5679,
  "\u2581obok": 5680,
  "\u2581Director": 5681,
  "\u2581akcji": 5682,
  "\u2581Camping": 5683,
  "\u2581Bon": 5684,
  "\u00f3\u0142": 5685,
  "\u2581las": 5686,
  "\u2581session": 5687,
  "\u2581Packages": 5688,
  "\u2581\u017cadnego": 5689,
  "\u2581brain": 5690,
  "\u2581situated": 5691,
  "\u2581taste": 5692,
  "\u2581Roleplay": 5693,
  "\u2581registered": 5694,
  "wana": 5695,
  "zz": 5696,
  "\u2581Dia": 5697,
  "\u2581writing": 5698,
  "\u2581soft": 5699,
  "\u2581sch": 5700,
  "\u2581\u0142atwe": 5701,
  "\u2581b\u0142\u0105d": 5702,
  "\u2581wspania\u0142y": 5703,
  "ace": 5704,
  "\u2581rozszerzenie": 5705,
  "\u2581Pronunciation": 5706,
  "\u2581amazing": 5707,
  "\u2581race": 5708,
  "\u2581inaczej": 5709,
  "\u2581stone": 5710,
  "\u2581animal": 5711,
  "gia": 5712,
  "\u2581zapyta\u0107": 5713,
  "aj\u0105ce": 5714,
  "\u2581generation": 5715,
  "\u2581exist": 5716,
  "\u2581planning": 5717,
  "\u2581zakresu": 5718,
  "\u2581anal": 5719,
  "\u2581pronounce": 5720,
  "Bo": 5721,
  "lem": 5722,
  "\u2581Wroc\u0142aw": 5723,
  "\u2581Kur": 5724,
  "duc": 5725,
  "\u2581pami\u0119ci": 5726,
  "\u2581acid": 5727,
  "\u2581\u00ab": 5728,
  "\u2581widzenia": 5729,
  "\u2581Costa": 5730,
  "\u2581stosuje": 5731,
  "\u2581ti": 5732,
  "\u2581Manchester": 5733,
  "53": 5734,
  "\u2581Lin": 5735,
  "\u2581Marriott": 5736,
  "\u2581ma\u0142ych": 5737,
  "\u2581Those": 5738,
  "\u2581piersi": 5739,
  "\u2581Gre": 5740,
  "zar": 5741,
  "\u2581Science": 5742,
  "\u2581orgasm": 5743,
  "\u2581Cup": 5744,
  "\u2581Motor": 5745,
  "\u2581tworzenia": 5746,
  "hotel": 5747,
  "\u2581ekranie": 5748,
  "\u2581pot": 5749,
  "\u2581Ac": 5750,
  "\u2581DO": 5751,
  "\u2581pi\u0119\u0107": 5752,
  "\u2581statystyki": 5753,
  "\u2581innej": 5754,
  "\u2581innovative": 5755,
  "\u2581dziewczyna": 5756,
  "\u2581miast": 5757,
  "\u2581wydajno\u015b\u0107": 5758,
  "\u2581t\u0142umaczenie": 5759,
  "\u2581producenta": 5760,
  "\u2581operate": 5761,
  "\u2581liquid": 5762,
  "szych": 5763,
  "\u2581Shanghai": 5764,
  "\u2581definitely": 5765,
  "\u2581Mat": 5766,
  "\u2581Television": 5767,
  "\u2014": 5768,
  "gr": 5769,
  "2,": 5770,
  "oma": 5771,
  "\u2581disc": 5772,
  "\u2581samej": 5773,
  "\u2581by\u0142oby": 5774,
  "\u2581hate": 5775,
  "\u2581Pool": 5776,
  "\u2581Miss": 5777,
  "\u2581gro": 5778,
  "gal": 5779,
  "\u2581plane": 5780,
  "\u2581Keep": 5781,
  "\u2581Farm": 5782,
  "\u2581Sky": 5783,
  "kcje": 5784,
  "\u2581creation": 5785,
  "eb": 5786,
  "\u2581\u0142azienka": 5787,
  "lie": 5788,
  "tag": 5789,
  "\u2581pla": 5790,
  "\u2581plastic": 5791,
  "\u2581ingredients": 5792,
  "icznych": 5793,
  "1)": 5794,
  "\u2581Mom": 5795,
  "\u2581intended": 5796,
  "\u00f3wka": 5797,
  "\u2581consumption": 5798,
  "\u2581demand": 5799,
  "tting": 5800,
  "\u2581nasza": 5801,
  "\u2581Nad": 5802,
  "\u2581Celem": 5803,
  "\u2581Charles": 5804,
  "\u2581zrobi": 5805,
  "\u258138": 5806,
  "\u2581Log": 5807,
  "\u0141": 5808,
  "\u2581Louis": 5809,
  "\u2581s\u0142u\u017cb": 5810,
  "\u2581ma\u0142o": 5811,
  "\u2581Striptiz": 5812,
  "\u2581B\u0119dzie": 5813,
  "box": 5814,
  "\u2581Dzie\u0144": 5815,
  "\u2581markets": 5816,
  "\u2581g\u0142owy": 5817,
  "\u2581obiekt\u00f3w": 5818,
  "88": 5819,
  "\u2581Th": 5820,
  "59": 5821,
  "\u2581kole": 5822,
  "acyjne": 5823,
  "\u2581Belgium": 5824,
  "\u2581advanced": 5825,
  "\u2581Fre": 5826,
  "ienia": 5827,
  "\u2581medicine": 5828,
  "\u2581presence": 5829,
  "\u2581rzeczywisto\u015bci": 5830,
  "Me": 5831,
  "ody": 5832,
  "\u258175": 5833,
  "lock": 5834,
  "\u2581dam": 5835,
  "\u2581Printer": 5836,
  "\u2581Bill": 5837,
  "\u2581trzyma": 5838,
  "\u2581poszczeg\u00f3lnych": 5839,
  "96": 5840,
  "lna": 5841,
  "\u2581Rent": 5842,
  "\u2581degree": 5843,
  "\u2581Angel": 5844,
  "\u2581Obiekt": 5845,
  "\u2581Obecnie": 5846,
  "cher": 5847,
  "\u2581bodies": 5848,
  "\u2581knows": 5849,
  "\u2581Pol": 5850,
  "\u2581fuel": 5851,
  "CI": 5852,
  "\u2581miesi\u0105cach": 5853,
  "\u2581Ludzie": 5854,
  "\u2581fu": 5855,
  "\u2581Cena": 5856,
  "\u2581maj\u0105c": 5857,
  "\u2581Przejd\u017a": 5858,
  "\u2581Wo": 5859,
  "\u2581kan": 5860,
  "\u2581Value": 5861,
  "\u2581nazwy": 5862,
  "\u2581choroby": 5863,
  "\u2581Warszawie": 5864,
  "\u2581artyku\u0142u": 5865,
  "god": 5866,
  "\u2581maps": 5867,
  "\u2581crazy": 5868,
  "\u2581murder": 5869,
  "acyjny": 5870,
  "\u2581nieco": 5871,
  "\u2581rec": 5872,
  "r\u00f3d": 5873,
  "EEC": 5874,
  "\u2581konta": 5875,
  "\u2581Professional": 5876,
  "\u2581furniture": 5877,
  "fect": 5878,
  "\u2581dzia\u0142alno\u015b\u0107": 5879,
  "dge": 5880,
  "\u2581Produkt": 5881,
  "\u2581operator": 5882,
  "\u2581feed": 5883,
  "\u2581Spo": 5884,
  "\u2581Char": 5885,
  "\u2581naturalne": 5886,
  "\u2581military": 5887,
  "Ch": 5888,
  "\u2581Nast\u0119pnie": 5889,
  "\u2581Joe": 5890,
  "\u2581konieczno\u015bci": 5891,
  "\u2581maintain": 5892,
  "nictwa": 5893,
  "\u2581interior": 5894,
  "\u2581wielko\u015bci": 5895,
  "\u2581developing": 5896,
  "\u2581\u015bwiat\u0142o": 5897,
  "\u2581memory": 5898,
  "\u2581supporting": 5899,
  "\u2581Word": 5900,
  "real": 5901,
  "\u2581electric": 5902,
  "\u2581prywatno\u015bci": 5903,
  "\u2581Sports": 5904,
  "\u2581shopping": 5905,
  "\u2581szt": 5906,
  "\u2581\u0142a": 5907,
  "\u2581multiple": 5908,
  "\u2581wydajno\u015bci": 5909,
  "\u2581Education": 5910,
  "izm": 5911,
  "\u2581u\u017cyj": 5912,
  "\u2581task": 5913,
  "pen": 5914,
  "sky": 5915,
  "\u2581Ak": 5916,
  "71": 5917,
  "\u2581og\u00f3le": 5918,
  "ios": 5919,
  "\u2581stycznia": 5920,
  "\u2581scope": 5921,
  "gh": 5922,
  "\u2581AT": 5923,
  "\u2581Tower": 5924,
  "wali": 5925,
  "\u2581Fast": 5926,
  "\u2581reality": 5927,
  "dis": 5928,
  "\u2581Grecja": 5929,
  "\u2581Ziemi": 5930,
  "\u2581Co\u015b": 5931,
  "dom": 5932,
  "\u2581Step": 5933,
  "\u2581performed": 5934,
  "NO": 5935,
  "\u2581Us": 5936,
  "\u2581z\u0142": 5937,
  "\u2581Pokoje": 5938,
  "\u2581Ur": 5939,
  "(2)": 5940,
  "\u2581Statystyki": 5941,
  "\u2581Zgodnie": 5942,
  "pis": 5943,
  "n\u00f3w": 5944,
  "\u2581district": 5945,
  "\u2581teren": 5946,
  "\u2581Downtown": 5947,
  "\u2581Foundation": 5948,
  "\u2581instytucji": 5949,
  "\u2581dobrym": 5950,
  "\u2581Wed\u0142ug": 5951,
  "\u2581gwiazd": 5952,
  "\u2581Coast": 5953,
  "\u2581Cla": 5954,
  "PR": 5955,
  "ute": 5956,
  "\u2581manage": 5957,
  "\u2581Ag": 5958,
  "\u2581sell": 5959,
  "bon": 5960,
  "elle": 5961,
  "los": 5962,
  "\u2581balance": 5963,
  "\u2581mln": 5964,
  "\u2581van": 5965,
  "\u2581gdyby": 5966,
  "ray": 5967,
  "\u2581biznesowe": 5968,
  "\u2581tissue": 5969,
  "\u2581Lan": 5970,
  "\u2581principle": 5971,
  "\u2581dzielnicy": 5972,
  "\u2581respond": 5973,
  "\u2581pass": 5974,
  "\u2581nauk": 5975,
  "\u2581listed": 5976,
  "\u2581wspania\u0142e": 5977,
  "\u2581Tweet": 5978,
  "\u2581uda\u0142o": 5979,
  "\u2581pojawi": 5980,
  "hn": 5981,
  "\u2581Bat": 5982,
  "\u2581wskaz\u00f3wki": 5983,
  "wel": 5984,
  "via": 5985,
  "cio": 5986,
  "\u2581serwer\u00f3w": 5987,
  "\u2581surrounding": 5988,
  "\u2581Trade": 5989,
  "\u2581Sk": 5990,
  "\u2581Night": 5991,
  "\u2581Pizza": 5992,
  "\u2581(4": 5993,
  "\u2581inwestycji": 5994,
  "\u2581Anavar": 5995,
  "\u2581wp\u0142ywu": 5996,
  "\u2581cech": 5997,
  "\u2581entry": 5998,
  "aki": 5999,
  "\u2581Fingering": 6000,
  "ell": 6001,
  "\u2581nazw\u0119": 6002,
  "alnych": 6003,
  "\u2581potrzebne": 6004,
  "\u2581Jej": 6005,
  "\u2581forest": 6006,
  "\u2581RO": 6007,
  "\u2581opcja": 6008,
  "\u2581completed": 6009,
  "a\u0142y": 6010,
  "\u2581interests": 6011,
  "ym\u00f3wione": 6012,
  "\u2581reading": 6013,
  "\u2581staje": 6014,
  "\u2581mistake": 6015,
  "Mi": 6016,
  "\u00bb": 6017,
  "\u2581Poza": 6018,
  "\u2581si\u0142y": 6019,
  "\u2581fear": 6020,
  "\u2581alarm": 6021,
  "anda": 6022,
  "cisk": 6023,
  "\u2581Blu": 6024,
  "\u2581Give": 6025,
  "\u2581Technical": 6026,
  "\u2581ul": 6027,
  "\u2581healthy": 6028,
  "\u2581honor": 6029,
  "\u2581nowym": 6030,
  "\u2581miss": 6031,
  "\u2581NA": 6032,
  "przet\u0142umaczonych": 6033,
  "\u2581szereg": 6034,
  "\u2581tele": 6035,
  "\u2581s\u0142ownik": 6036,
  "\u2581Jaka": 6037,
  "\u2581regulations": 6038,
  "\u2581Chorwacja": 6039,
  "\u2581Send": 6040,
  "\u2581czasem": 6041,
  "\u2581kot": 6042,
  "\u2581druk": 6043,
  "\u2581bezp\u0142atne": 6044,
  "\u2581towar\u00f3w": 6045,
  "\u2581began": 6046,
  "zen": 6047,
  "\u2581Second": 6048,
  "\u2581HTML": 6049,
  "\u2581defined": 6050,
  "lec": 6051,
  "Ba": 6052,
  "\u2581felt": 6053,
  "alnie": 6054,
  "sburg": 6055,
  "\u2581dry": 6056,
  "tis": 6057,
  "\u2581zone": 6058,
  "\u2581dom\u00f3w": 6059,
  "r\u00f3\u017cni": 6060,
  "\u2581Coffee": 6061,
  "\u2581Praw": 6062,
  "\u258137": 6063,
  "\u2581fix": 6064,
  "cc": 6065,
  "RI": 6066,
  "iczna": 6067,
  "\u2581Tool": 6068,
  "\u2581Sorry": 6069,
  "DI": 6070,
  "\u0142ug": 6071,
  "\u2581przemys\u0142u": 6072,
  "\u2581whatever": 6073,
  "\u2581sy": 6074,
  "\u2581successful": 6075,
  "\u2581Ski": 6076,
  "\u2581moral": 6077,
  "\u2581Prac": 6078,
  "\u2581dance": 6079,
  "gni": 6080,
  "part": 6081,
  "\u2581Wait": 6082,
  "\u2581rze": 6083,
  "\u2581lotniczy": 6084,
  "\u2581producent": 6085,
  "\u2581\u017ar\u00f3d\u0142a": 6086,
  "\u2581osi\u0105gn\u0105\u0107": 6087,
  "\u2581francuski": 6088,
  "\u2581my\u015bl\u0119": 6089,
  "\u2581sektora": 6090,
  "\u2581ME": 6091,
  "ie\u0144": 6092,
  "\u2581negative": 6093,
  "bl": 6094,
  "zja": 6095,
  "\u2581grow": 6096,
  "\u2581sufficient": 6097,
  "\u2581attached": 6098,
  "EWG": 6099,
  "\u2581pochodzi": 6100,
  "iu": 6101,
  "\u2581factors": 6102,
  "-10": 6103,
  "\u2581principles": 6104,
  "\u2581sources": 6105,
  "\u2581chain": 6106,
  "ologii": 6107,
  "\u2581Zestaw": 6108,
  "\u2581camera": 6109,
  "For": 6110,
  "\u2581stary": 6111,
  "\u2581formacie": 6112,
  "\u2581Display": 6113,
  "\u2581policies": 6114,
  "\u2581Jezus": 6115,
  "ston": 6116,
  "\u2581ban": 6117,
  "dzi\u0107": 6118,
  "based": 6119,
  "\u2581kolejne": 6120,
  "\u2581uszkodzenia": 6121,
  "\u2581manner": 6122,
  "\u2581trudne": 6123,
  "\u2581ustaw": 6124,
  "\u2581(5)": 6125,
  "\u2581enable": 6126,
  "\u2581materia\u0142u": 6127,
  "\u2581Protection": 6128,
  "\u2581taras": 6129,
  "\u2581jasne": 6130,
  "OT": 6131,
  "\u2581sprzeda": 6132,
  "\u2581ryb": 6133,
  "czenia": 6134,
  "le\u017c": 6135,
  "\u2581importance": 6136,
  "\u2581mainly": 6137,
  "ball": 6138,
  "\u2581wynajem": 6139,
  "bym": 6140,
  "\u2581flash": 6141,
  "\u2581Via": 6142,
  "\u2581innovation": 6143,
  "\u2581porno": 6144,
  "\u2581th": 6145,
  "\u2581spirit": 6146,
  "\u2581Total": 6147,
  "\u2581plans": 6148,
  "\u2581wydarzenia": 6149,
  "UN": 6150,
  "\u2581Personal": 6151,
  "\u2581huh": 6152,
  "\u2581du\u017c\u0105": 6153,
  "\u2581king": 6154,
  "\u2581Azja": 6155,
  "II": 6156,
  "\u2581soul": 6157,
  "\u2581Mc": 6158,
  "serv": 6159,
  "\u2581prawdziwe": 6160,
  "\u2581temperatury": 6161,
  "\u2581twoj\u0105": 6162,
  "niejsze": 6163,
  "\u2581married": 6164,
  "bet": 6165,
  "med": 6166,
  "ml": 6167,
  "ack": 6168,
  "\u2581Naszym": 6169,
  "\u2581Wygl\u0105da": 6170,
  "pul": 6171,
  "by\u015b": 6172,
  "ni\u0119cie": 6173,
  "\u2581ojca": 6174,
  "\u2581relations": 6175,
  "\u2581Nor": 6176,
  "\u2581shoot": 6177,
  "\u2581w\u0142asny": 6178,
  "\u2581komentarz": 6179,
  "\u2581inspir": 6180,
  "\u2581Meksyk": 6181,
  "\u2581Praca": 6182,
  "park": 6183,
  "cka": 6184,
  "\u2581note": 6185,
  "\u2581zatrzyma\u0107": 6186,
  "rie": 6187,
  "\u2581exhibition": 6188,
  "\u2581powrotem": 6189,
  "\u2581sil": 6190,
  "\u2581kurs": 6191,
  "izacji": 6192,
  "\u2581Wsp\u00f3lnoty": 6193,
  "\u2581aware": 6194,
  "\u2581wykona": 6195,
  "encja": 6196,
  "\u2581bia\u0142y": 6197,
  "you": 6198,
  "\u2581cycle": 6199,
  "\u2581Instant": 6200,
  "\u2581kwestii": 6201,
  "\u2581kept": 6202,
  "\u2581przynajmniej": 6203,
  "\u2581Jaki": 6204,
  "\u2581filter": 6205,
  "\u2581wysy\u0142a": 6206,
  "\u2581Conference": 6207,
  "\u2581mapy": 6208,
  "kle": 6209,
  "\u2581Convention": 6210,
  "\u2581origin": 6211,
  "\u2581nor": 6212,
  "\u2581Tour": 6213,
  "\u0105ce": 6214,
  "run": 6215,
  "\u2581ID": 6216,
  "\u2581Dell": 6217,
  "\u2581pen": 6218,
  "ington": 6219,
  "\u2581bezpieczne": 6220,
  "98": 6221,
  "\u2581families": 6222,
  "\u2581prepare": 6223,
  "\u2581formal": 6224,
  "\u2581Dowiedz": 6225,
  "pping": 6226,
  "\u2581Nikt": 6227,
  "\u2581frame": 6228,
  "w\u0105": 6229,
  "\u2581finansowe": 6230,
  "57": 6231,
  "\u2581conditioning": 6232,
  "\u2581plants": 6233,
  "\u2581Little": 6234,
  "a\u0142o": 6235,
  "\u2581filmy": 6236,
  "\u2581fe": 6237,
  "Open": 6238,
  "\u2581wsp\u00f3lnego": 6239,
  "leg": 6240,
  "\u2581Pana": 6241,
  "uma": 6242,
  "\u2581kalendarz": 6243,
  "\u2581Customer": 6244,
  "\u2581seat": 6245,
  "\u2581AD": 6246,
  "\u2581stick": 6247,
  "\u2581Space": 6248,
  "\u2581wymagania": 6249,
  "\u2581earth": 6250,
  "\u2581autobus": 6251,
  "\u2581species": 6252,
  "ury": 6253,
  "\u2581aktualizowanie": 6254,
  "\u2581burn": 6255,
  "\u2581buildings": 6256,
  "\u2581dodatkowych": 6257,
  "\u2581Cel": 6258,
  "67": 6259,
  "\u2581gar": 6260,
  "\u2581hi": 6261,
  "\u2581explain": 6262,
  "\u2581lud": 6263,
  "stru": 6264,
  "\u2581\u015blub": 6265,
  "ates": 6266,
  "\u2581punkt\u00f3w": 6267,
  "\u2581join": 6268,
  "\u2581Note": 6269,
  "\u2581pracowa\u0107": 6270,
  "\u2581Miejsca": 6271,
  "wid": 6272,
  "\u2581finally": 6273,
  "kur": 6274,
  "\u2581\u015bniadanie": 6275,
  "\u2581repair": 6276,
  "\u2581videos": 6277,
  "\u2581Easy": 6278,
  "\u2581Miasto": 6279,
  "\u2581przycisku": 6280,
  "\u2581PR": 6281,
  "\u2581legislation": 6282,
  "\u2581Numer": 6283,
  "\u2581Zrobi": 6284,
  "\u2581sprawdza": 6285,
  "\u2581spot": 6286,
  "\u2581oddzia\u0142": 6287,
  "\u2581ve": 6288,
  "\u2581smart": 6289,
  "\u2581zupe\u0142nie": 6290,
  "\u2581Material": 6291,
  "\u2581assist": 6292,
  "\u2581zam\u00f3wienia": 6293,
  "FI": 6294,
  "dio": 6295,
  "\u2581Academy": 6296,
  "Al": 6297,
  "\u2581Zna": 6298,
  "\u2581middle": 6299,
  "\u2581zarezerwowa\u0107": 6300,
  "\u2581najlepsz\u0105": 6301,
  "\u2581AS": 6302,
  "\u2581calendar": 6303,
  "uff": 6304,
  "\u2581Playa": 6305,
  "mann": 6306,
  "\u2581civil": 6307,
  "cept": 6308,
  "BI": 6309,
  "\u2581straight": 6310,
  "\u2581ofert": 6311,
  "\u2581czynno\u015bci": 6312,
  "els": 6313,
  "\u2581cho\u0107": 6314,
  "\u2581ST": 6315,
  "owanego": 6316,
  "\u2581milk": 6317,
  "\u2581administration": 6318,
  "\u2581mail": 6319,
  "\u2581Asian": 6320,
  "\u2581komunikacji": 6321,
  "\u2581camp": 6322,
  "mawia": 6323,
  "\u2581learning": 6324,
  "\u2581Madrid": 6325,
  "\u2581porozmawia\u0107": 6326,
  "\u2581broni": 6327,
  "\u2581regions": 6328,
  "\u2581aplikacja": 6329,
  "tych": 6330,
  "\u2581Brand": 6331,
  "\u2581mo\u017cliwych": 6332,
  "\u2581Miami": 6333,
  "\u2581bezp\u0142atny": 6334,
  "jska": 6335,
  "\u2581Kanada": 6336,
  "\u2581substancji": 6337,
  "\u2581Brussels": 6338,
  "\u2581Komitet": 6339,
  "ova": 6340,
  "\u2581poor": 6341,
  "\u2581Poli": 6342,
  "\u2581chi": 6343,
  "\u2581experts": 6344,
  "\u2581portal": 6345,
  "nar": 6346,
  "\u2581gdy\u017c": 6347,
  "\u2581tajemnic": 6348,
  "\u2581river": 6349,
  "rate": 6350,
  "\u2581Mil": 6351,
  "\u2581udost\u0119pnia": 6352,
  "\u2581Tags": 6353,
  "\u2581label": 6354,
  "stabil": 6355,
  "jmy": 6356,
  "dzia\u0142": 6357,
  "\u2581darmowe": 6358,
  "\u2581wielki": 6359,
  "\u2581Niekt\u00f3re": 6360,
  "ewski": 6361,
  "\u2581idealne": 6362,
  "tus": 6363,
  "tz": 6364,
  "\u2581Sweden": 6365,
  "\u2581identify": 6366,
  "\u2581zostaje": 6367,
  "\u2581ogl\u0105da": 6368,
  "bed": 6369,
  "wrot": 6370,
  "\u2581ste": 6371,
  "\u2581systemy": 6372,
  "\u2581\u017b": 6373,
  "\u2581Three": 6374,
  "\u2581m\u00f3wi\u0105c": 6375,
  "\u2581op\u0142at": 6376,
  "\u2581Es": 6377,
  "\u2581g\u0142\u00f3wnym": 6378,
  "\u258134": 6379,
  "\u2581szeroki": 6380,
  "ado": 6381,
  "\u2581r\u00f3\u017c": 6382,
  "gno": 6383,
  "\u2581wear": 6384,
  "\u2581Orgazm": 6385,
  "\u2581Sydney": 6386,
  "\u2581wegetarian": 6387,
  "\u2581preview": 6388,
  "\u2581punktu": 6389,
  "\u2581my\u015blisz": 6390,
  "z\u0105": 6391,
  "ib": 6392,
  "cen": 6393,
  "\u2581dynamic": 6394,
  "\u2581Pop": 6395,
  "\u2581reached": 6396,
  "r\u00f3b": 6397,
  "\u2581Anglia": 6398,
  "bia": 6399,
  "centr": 6400,
  "\u2581serce": 6401,
  "\u2581za\u015b": 6402,
  "\u2581Romania": 6403,
  "pod": 6404,
  "97": 6405,
  "\u2581instruments": 6406,
  "\u2581Vaio": 6407,
  "\u2581biur": 6408,
  "uf": 6409,
  "\u258142": 6410,
  "\u2581traffic": 6411,
  "\u2581lutego": 6412,
  "\u2581supported": 6413,
  "78": 6414,
  "\u2581natomiast": 6415,
  "gate": 6416,
  "\u2581w\u0142asnych": 6417,
  "\u2581colour": 6418,
  "\u2581Micro": 6419,
  "FX": 6420,
  "\u2581comment": 6421,
  "\u2581hall": 6422,
  "\u2581battle": 6423,
  "\u2581advice": 6424,
  "\u2581leaving": 6425,
  "\u2581sklep": 6426,
  "\u2581Factory": 6427,
  "cego": 6428,
  "\u2581former": 6429,
  "\u2581Once": 6430,
  "\u2581Ph": 6431,
  "\u2581pr\u0119dko\u015b\u0107": 6432,
  "\u2581Net": 6433,
  "Mar": 6434,
  "wing": 6435,
  "\u2581houses": 6436,
  "\u2581telefonu": 6437,
  "ect": 6438,
  "ass": 6439,
  "tent": 6440,
  "\u2581understanding": 6441,
  "\u2581r\u0119cznie": 6442,
  "\u2581moving": 6443,
  "\u2581sekund": 6444,
  "\u2581hu": 6445,
  "nal": 6446,
  "u\u0142": 6447,
  "matic": 6448,
  "\u2581specified": 6449,
  "\u2581spread": 6450,
  "\u2581Gal": 6451,
  "\u2581pozna\u0107": 6452,
  "\u2581znajduj\u0105cych": 6453,
  "pri": 6454,
  "lip": 6455,
  "\u2581Prince": 6456,
  "szed\u0142": 6457,
  "\u2581Holy": 6458,
  "\u2581Sar": 6459,
  "\u2581bezglutenowe": 6460,
  "\u2581Zabawa": 6461,
  "\u2581zarz\u0105dzanie": 6462,
  "rak": 6463,
  "\u2581Action": 6464,
  "87": 6465,
  "\u2581Kat": 6466,
  "\u2581palcami": 6467,
  "\u2581osob": 6468,
  "\u2581infrastructure": 6469,
  "\u2581najwi\u0119kszego": 6470,
  "\u2581okazji": 6471,
  "\u2581phrase": 6472,
  "\u2581finish": 6473,
  "owali\u015bmy": 6474,
  "\u2581growing": 6475,
  "\u2581Cer": 6476,
  "\u2581tank": 6477,
  "\u2581120": 6478,
  "ira": 6479,
  "\u2581medium": 6480,
  "\u2581kawy": 6481,
  "\u2581zawieraj\u0105cy": 6482,
  "\u2581dup": 6483,
  "\u2581Days": 6484,
  "rat": 6485,
  "\u2581znam": 6486,
  "\u2581prosty": 6487,
  "\u2581Victoria": 6488,
  "\u2581pl": 6489,
  "\u2581Non": 6490,
  "\u2581pierwszego": 6491,
  "olo": 6492,
  "\u2581analiz": 6493,
  "\u2581affect": 6494,
  "ky": 6495,
  "\u2581flag": 6496,
  "put": 6497,
  "72": 6498,
  "VA": 6499,
  "\u2581lotu": 6500,
  "\u2581crisis": 6501,
  "wany": 6502,
  "\u2581insurance": 6503,
  "\u2581znowu": 6504,
  "\u2581extract": 6505,
  "\u2581Dubai": 6506,
  "\u2581Cz\u0142onkowskie": 6507,
  "600": 6508,
  "\u2581dostawy": 6509,
  "\u2581gr\u0119": 6510,
  "\u2581materia\u0142y": 6511,
  "\u2581overall": 6512,
  "\u2581MSI": 6513,
  "\u2581objective": 6514,
  "\u2581Daniel": 6515,
  "86": 6516,
  "\u2581istotne": 6517,
  "\u2581Transfer": 6518,
  "\u2581registry": 6519,
  "\u2581license": 6520,
  "IM": 6521,
  "\u2581pakietu": 6522,
  "\u2581letter": 6523,
  "\u2581Children": 6524,
  "\u2581boat": 6525,
  "\u2581comprehensive": 6526,
  "\u2581express": 6527,
  "VE": 6528,
  "\u2581sk\u0142adniki": 6529,
  "\u2581rejestru": 6530,
  "\u2581zabi\u0142": 6531,
  "\u2581obiekty": 6532,
  "\u2581mouth": 6533,
  "\u2581Edition": 6534,
  "\u2581anymore": 6535,
  "UM": 6536,
  "\u2581kwietnia": 6537,
  "\u25811:": 6538,
  "tle": 6539,
  "\u2581sta\u0142": 6540,
  "\u2581ci\u015bnienia": 6541,
  "\u2581Kos": 6542,
  "KA": 6543,
  "p\u0142yw": 6544,
  "\u2581samolot": 6545,
  "\u2581Godzinowa": 6546,
  "\u2581Silver": 6547,
  "\u2581autor": 6548,
  "poko": 6549,
  "\u2581walking": 6550,
  "naj": 6551,
  "\u2581post\u0119powania": 6552,
  "\u2581recently": 6553,
  "\u2581occasion": 6554,
  "\u2581kultur": 6555,
  "\u2581wymagane": 6556,
  "\u25818.1": 6557,
  "\u2581zabi\u0107": 6558,
  "\u2581zapis": 6559,
  "92": 6560,
  "pin": 6561,
  "\u2581Dy": 6562,
  "\u2581GA": 6563,
  "\u2581otwarty": 6564,
  "\u2581Marketing": 6565,
  "\u2581b\u00f3l": 6566,
  "\u2581cash": 6567,
  "\u2581wersje": 6568,
  "imy": 6569,
  "\u2581funds": 6570,
  "lay": 6571,
  "d\u0142u\u017c": 6572,
  "\u2581opportunities": 6573,
  "\u2581cha": 6574,
  "\u2581Mapa": 6575,
  "\u2581kompleks": 6576,
  "\u2581seven": 6577,
  "\u2581MI": 6578,
  "\u2581Four": 6579,
  "\u2581Dost\u0119pne": 6580,
  "\u2581walki": 6581,
  "\u2581career": 6582,
  "hin": 6583,
  "ienie": 6584,
  "\u2581powodowa\u0107": 6585,
  "\u2581Ctrip": 6586,
  "\u2581Side": 6587,
  "\u2581Homes": 6588,
  "\u2581Piotr": 6589,
  "hol": 6590,
  "\u2581administrative": 6591,
  "\u2581hydro": 6592,
  "\u2581Istnieje": 6593,
  "\u2581driving": 6594,
  "\u2581Turystyka": 6595,
  "\u2581golf": 6596,
  "\u2581nast\u0119pny": 6597,
  "\u2581male": 6598,
  "\u2581till": 6599,
  "bieg": 6600,
  "\u2581Lisbon": 6601,
  "play": 6602,
  "\u2581doubt": 6603,
  "\u2581increasing": 6604,
  "ato": 6605,
  "cus": 6606,
  "\u2581characteristics": 6607,
  "\u2581DA": 6608,
  "\u2581heating": 6609,
  "pil": 6610,
  "\u2581beauty": 6611,
  "bul": 6612,
  "\u25812.0": 6613,
  "\u2581600": 6614,
  "szczy": 6615,
  "\u2581promise": 6616,
  "\u2581rozwi\u0105za\u0107": 6617,
  "bury": 6618,
  "\u2581Res": 6619,
  "\u2581League": 6620,
  "It": 6621,
  "\u2581Zosta\u0142": 6622,
  "owni": 6623,
  "\u2581marca": 6624,
  "\u2581Kup": 6625,
  "\u2581Mas": 6626,
  "wane": 6627,
  "\u2581telling": 6628,
  "\u2581bright": 6629,
  "\u2581programmes": 6630,
  "\u2581push": 6631,
  "\u2581Spring": 6632,
  "rz\u0119": 6633,
  "\u2581Mill": 6634,
  "\u2581g\u0142\u00f3wnych": 6635,
  "a\u0142e\u015b": 6636,
  "\u2581\u015bcian": 6637,
  "\u2581d\u0142ugi": 6638,
  "rest": 6639,
  "\u2581award": 6640,
  "\u2581Summer": 6641,
  "pet": 6642,
  "wart": 6643,
  "\u2581height": 6644,
  "ram": 6645,
  "\u2581serwera": 6646,
  "\u2581wym\u00f3wi\u0107": 6647,
  "\u2581presentation": 6648,
  "\u2581colors": 6649,
  "\u2581sc": 6650,
  "81": 6651,
  "\u2581doros\u0142ych": 6652,
  "\u2581przeprowadza": 6653,
  "\u2581supplier": 6654,
  "\u2581racj\u0119": 6655,
  "\u2581wyzna": 6656,
  "OP": 6657,
  "\u2581spotkanie": 6658,
  "\u2581arrival": 6659,
  "\u2581\u017cona": 6660,
  "69": 6661,
  "\u2581rano": 6662,
  "\u2581states": 6663,
  "\u2581score": 6664,
  "\u2581resistance": 6665,
  "\u2581Wind": 6666,
  "\u2581winter": 6667,
  "\u2581organization": 6668,
  "ozy": 6669,
  "\u2581bedroom": 6670,
  "\u2581consent": 6671,
  "\u2581obszar": 6672,
  "\u2581Drive": 6673,
  "\u2581administrator": 6674,
  "\u2581Imp": 6675,
  "\u2581tygodniach": 6676,
  "ndy": 6677,
  "\u2581Premier": 6678,
  "rek": 6679,
  "\u0144ska": 6680,
  "\u2581potrzebuje": 6681,
  "\u2581proposed": 6682,
  "przy": 6683,
  "\u2581EP": 6684,
  "\u2581Class": 6685,
  "ben": 6686,
  "\u2581w\u0142asnym": 6687,
  "\u2581brat": 6688,
  "\u2581wprowadzenie": 6689,
  "mes": 6690,
  "\u2581Does": 6691,
  "\u2581modu\u0142": 6692,
  "\u2581robot": 6693,
  "WA": 6694,
  "\u2581wiemy": 6695,
  "yka": 6696,
  "\u2581GmbH": 6697,
  "\u2581sk": 6698,
  "vic": 6699,
  "san": 6700,
  "by\u0107": 6701,
  "\u2581zwi\u0119kszy\u0107": 6702,
  "\u2581czyni": 6703,
  "\u2581Du\u017cy": 6704,
  "\u2581virus": 6705,
  "ress": 6706,
  "\u2581consists": 6707,
  "\u2581Bol": 6708,
  "\u2581California": 6709,
  "\u2581aktualizacja": 6710,
  "\u2581Twojej": 6711,
  "\u2581ulicy": 6712,
  "rz\u0105d": 6713,
  "\u2581dyrektor": 6714,
  "\u2581zmienia": 6715,
  "\u2581Alex": 6716,
  "\u2581widokiem": 6717,
  "\u2581mieszkania": 6718,
  "\u2581mimo": 6719,
  "\u2581Mad": 6720,
  "\u2581pobranie": 6721,
  "\u2581cards": 6722,
  "\u2581cenie": 6723,
  "\u2581nauki": 6724,
  "gel": 6725,
  "zw": 6726,
  "zona": 6727,
  "\u2581urz\u0105dzeniem": 6728,
  "new": 6729,
  "\u2581jaka": 6730,
  "\u2581zrozumie\u0107": 6731,
  "\u2581Rozszerzenie": 6732,
  "\u2581worldwide": 6733,
  "\u2581lock": 6734,
  "owiec": 6735,
  "\u2581Liczba": 6736,
  "\u2581niezwykle": 6737,
  "strze": 6738,
  "\u2581sprawa": 6739,
  "\u2581investigation": 6740,
  "\u2581Classic": 6741,
  "\u2581terrace": 6742,
  "\u2581rad": 6743,
  "tera": 6744,
  "\u2581Tag": 6745,
  "62": 6746,
  "\u2581wina": 6747,
  "\u2581granted": 6748,
  "\u2581wydaj\u0105": 6749,
  "\u2581Pay": 6750,
  "\u2581du\u017cych": 6751,
  "\u2581Hello": 6752,
  "\u2581Wielkiej": 6753,
  "\u2581odpowiednich": 6754,
  "ography": 6755,
  "\u2581Link": 6756,
  "iej": 6757,
  "\u2581clearly": 6758,
  "dam": 6759,
  "\u2581sercu": 6760,
  "\u2581adopt": 6761,
  "\u2581pola": 6762,
  "\u2581AND": 6763,
  "\u2581internetowa": 6764,
  "\u2581tak\u0105": 6765,
  "\u2581Choose": 6766,
  "\u2581eks": 6767,
  "\u2581likely": 6768,
  "\u2581aplikacj\u0119": 6769,
  "KO": 6770,
  "\u2581spotkania": 6771,
  "\u2581krok": 6772,
  "COM": 6773,
  "St": 6774,
  "\u2581faith": 6775,
  "czone": 6776,
  "\u2581YouTube": 6777,
  "\u2581Sunday": 6778,
  "\u2581Monitor": 6779,
  "a\u0142am": 6780,
  "\u2581Iron": 6781,
  "aka": 6782,
  "\u2581Cro": 6783,
  "\u25811000": 6784,
  "\u2581miesza": 6785,
  "\u2581bottle": 6786,
  "\u2581steryd\u00f3w": 6787,
  "\u2581wr\u00f3ci": 6788,
  "\u2581br": 6789,
  "\u2581Modern": 6790,
  "Wy": 6791,
  "\u2581ones": 6792,
  "pr": 6793,
  "ls": 6794,
  "ito": 6795,
  "nice": 6796,
  "\u2581architecture": 6797,
  "\u2581Daily": 6798,
  "\u2581argument": 6799,
  "gli": 6800,
  "\u2581employment": 6801,
  "\u2581najpierw": 6802,
  "\u2581dziw": 6803,
  "\u2581obywatel": 6804,
  "\u2581Nearby": 6805,
  "\u2581zamiast": 6806,
  "mic": 6807,
  "ign": 6808,
  "\u2581gift": 6809,
  "\u2581Yo": 6810,
  "acyjnych": 6811,
  "\u2581profit": 6812,
  "\u2581Try": 6813,
  "\u2581equal": 6814,
  "\u2581kredyt": 6815,
  "rit": 6816,
  "\u2581powi\u0105zane": 6817,
  "\u2581muzyki": 6818,
  "\u2581Petersburg": 6819,
  "\u2581stosowa\u0107": 6820,
  "\u2581Kr\u00f3l": 6821,
  "\u2581aspects": 6822,
  "\u2581los": 6823,
  "\u2581krajowych": 6824,
  "bot": 6825,
  "\u2581Mass": 6826,
  "3)": 6827,
  "\u2581mono": 6828,
  "\u2581bazie": 6829,
  "CS": 6830,
  "\u2581spi": 6831,
  "\u2581narz\u0119dzie": 6832,
  "\u2581kra": 6833,
  "\u2581stosowanie": 6834,
  "\u2581raczej": 6835,
  "\u2581pump": 6836,
  "\u2581Wil": 6837,
  "\u2581Adobe": 6838,
  "\u2581ca\u0142o\u015bci": 6839,
  "owa\u0142em": 6840,
  "\u2581wiedzia\u0142": 6841,
  "\u2581Marina": 6842,
  "\u2581uzyskania": 6843,
  "\u2581sick": 6844,
  "chodz\u0105c": 6845,
  "\u2581Instrukcje": 6846,
  "\u2581otwarte": 6847,
  "zh": 6848,
  "\u2581corner": 6849,
  "strzel": 6850,
  "\u2581uk\u0142adu": 6851,
  "\u2581chapter": 6852,
  "\u2581obtained": 6853,
  "\u2581podpis": 6854,
  "\u2581wr\u00f3ci\u0107": 6855,
  "file": 6856,
  "\u2581Ant": 6857,
  "\u2581G\u00f3r": 6858,
  "\u2581niemiecki": 6859,
  "ello": 6860,
  "\u2581internetowego": 6861,
  "IF": 6862,
  "\u2581birth": 6863,
  "\u2581integrated": 6864,
  "\u2581magazyn": 6865,
  "\u2581campaign": 6866,
  "\u2581znalezione": 6867,
  "\u2581morze": 6868,
  "\u2581ocean": 6869,
  "\u2581Pad": 6870,
  "\u2581crime": 6871,
  "\u2581bla": 6872,
  "\u2581LAN": 6873,
  "-8": 6874,
  "\u2581disabled": 6875,
  "zki": 6876,
  "ni\u0105": 6877,
  "\u2581accessories": 6878,
  "\u2581ulic": 6879,
  "\u2581Kal": 6880,
  "\u2581Pierwszy": 6881,
  "\u2581alive": 6882,
  "\u2581zgody": 6883,
  "\u2581Ali": 6884,
  "\u2581kolory": 6885,
  "tura": 6886,
  "\u2581mia\u0142em": 6887,
  "ets": 6888,
  "\u2581practical": 6889,
  "key": 6890,
  "\u2581poci\u0105g": 6891,
  "\u2581bonus": 6892,
  "\u2581Wild": 6893,
  "\u2581Another": 6894,
  "\u2581my\u015bl": 6895,
  "\u015bwietl": 6896,
  "\u2581conduct": 6897,
  "\u2581implement": 6898,
  "\u2581nast\u0105pi": 6899,
  "\u2581somebody": 6900,
  "\u2581stars": 6901,
  "\u2581Wyszukaj": 6902,
  "\u2581concentration": 6903,
  "\u2581named": 6904,
  "\u2581sugar": 6905,
  "\u258155": 6906,
  "\u2581\u0142atwy": 6907,
  "\u2581stosunku": 6908,
  "\u2581decisions": 6909,
  "\u2581stworzy\u0107": 6910,
  "nio": 6911,
  "down": 6912,
  "\u2581tea": 6913,
  "\u2581Learn": 6914,
  "\u2581absolutely": 6915,
  "\u2581HRS": 6916,
  "\u2581Qui": 6917,
  "tern": 6918,
  "\u2581Cloud": 6919,
  "\u2581j": 6920,
  "\u25812001": 6921,
  "\u2581pattern": 6922,
  "\u2581dziewczyn": 6923,
  "\u2581znane": 6924,
  "zny": 6925,
  "\u2581football": 6926,
  "\u2581nearby": 6927,
  "chen": 6928,
  "GA": 6929,
  "\u2581claim": 6930,
  "\u2581promotion": 6931,
  "\u2581europejskich": 6932,
  "93": 6933,
  "\u2581otwiera": 6934,
  "\u2581sold": 6935,
  "\u2581relating": 6936,
  "IR": 6937,
  "\u2581cutting": 6938,
  "\u2581certyfikat": 6939,
  "\u2581outdoor": 6940,
  "\u2581wersj\u0119": 6941,
  "\u2581szcz\u0119\u015bcie": 6942,
  "\u2581closed": 6943,
  "\u2581Twoich": 6944,
  "\u2581tests": 6945,
  "\u2581Flor": 6946,
  "\u2581Wiele": 6947,
  "\u2581unless": 6948,
  "\u2581publik": 6949,
  "91": 6950,
  "\u2581missing": 6951,
  "jd\u017a": 6952,
  "\u2581individuals": 6953,
  "\u2581zmieni": 6954,
  "\u2581evaluation": 6955,
  "\u2581mix": 6956,
  "\u2581imieniu": 6957,
  "\u2581Case": 6958,
  "\u2581rozszerzeniem": 6959,
  "dze": 6960,
  "\u2581Age": 6961,
  "\u2581Press": 6962,
  "bri": 6963,
  "lina": 6964,
  "\u2581song": 6965,
  "\u2581Albo": 6966,
  "\u2581www": 6967,
  "\u2581atmosphere": 6968,
  "\u2581favorite": 6969,
  "\u2581scale": 6970,
  "\u2581braku": 6971,
  "\u2581Related": 6972,
  "\u2581meters": 6973,
  "\u2581dates": 6974,
  "\u2581zainteresowany": 6975,
  "\u2581prom": 6976,
  "ene": 6977,
  "\u2581agricultural": 6978,
  "\u2581pull": 6979,
  "\u2581skutk\u00f3w": 6980,
  "iwa": 6981,
  "\u2581tips": 6982,
  "\u2581Singapore": 6983,
  "\u2581square": 6984,
  "\u2581Producent": 6985,
  "\u2581talent": 6986,
  "\u2581brzmi": 6987,
  "Ko": 6988,
  "\u2581baz": 6989,
  "\u2581Pin": 6990,
  "dem": 6991,
  "\u2581released": 6992,
  "ksy": 6993,
  "\u2581otwarcia": 6994,
  "TER": 6995,
  "An": 6996,
  "\u2581tymi": 6997,
  "\u2581z\u0142a": 6998,
  "\u2581establish": 6999,
  "\u2581ka\u017cd\u0105": 7000,
  "\u2581compatible": 7001,
  "its": 7002,
  "fra": 7003,
  "dow": 7004,
  "\u2581Kids": 7005,
  "odo": 7006,
  "\u2581Hard": 7007,
  "\u2581pe\u0142ne": 7008,
  "\u2581DNA": 7009,
  "\u2581catch": 7010,
  "79": 7011,
  "\u2581\u0142\u0105czy": 7012,
  "\u2581wiedz\u0105": 7013,
  "bb": 7014,
  "\u2581doskona\u0142e": 7015,
  "\u2581Accessories": 7016,
  "\u2581firmie": 7017,
  "\u2581Rosja": 7018,
  "dyn": 7019,
  "\u2581smooth": 7020,
  "\u2581discuss": 7021,
  "\u2581meetings": 7022,
  "\u2581Run": 7023,
  "but": 7024,
  "\u2581wynik": 7025,
  "\u2581comments": 7026,
  "\u2581rod": 7027,
  "\u2581serve": 7028,
  "\u2581sza": 7029,
  "\u2581tasks": 7030,
  "year": 7031,
  "\u2581Boy": 7032,
  "\u2581sytuacja": 7033,
  "owo\u015b\u0107": 7034,
  "Be": 7035,
  "rot": 7036,
  "\u2581Privacy": 7037,
  "\u2581Programme": 7038,
  "\u2581dia": 7039,
  "\u2581Dzi": 7040,
  "-19": 7041,
  "\u2581prawnych": 7042,
  "\u2581Everything": 7043,
  "ysz": 7044,
  "\u2581Korzystaj\u0105c": 7045,
  "right": 7046,
  "\u2581szkolenia": 7047,
  "\u2581Pe\u0142ny": 7048,
  "\u2581Telefon": 7049,
  "\u2581w\u0142a\u015bciwe": 7050,
  "lum": 7051,
  "\u2581cancer": 7052,
  "\u2581Cri": 7053,
  "\u2581Kit": 7054,
  "\u2581Has": 7055,
  "CP": 7056,
  "\u2581broad": 7057,
  "\u2581lepszy": 7058,
  "\u2581Pier": 7059,
  "\u2581bro": 7060,
  "\u2581protected": 7061,
  "\u2581Tan": 7062,
  "bec": 7063,
  "\u2581bior\u0105c": 7064,
  "no\u015b": 7065,
  "\u2581mama": 7066,
  "DR": 7067,
  "zol": 7068,
  "\u2581formula": 7069,
  "\u2581Nr": 7070,
  "\u2581holding": 7071,
  "\u2581iron": 7072,
  "\u2581bro\u0144": 7073,
  "\u2581Wi\u0119kszo\u015b\u0107": 7074,
  "\u2581ride": 7075,
  "\u2581fishing": 7076,
  "\u2581Kto\u015b": 7077,
  "\u2581remains": 7078,
  "born": 7079,
  "\u2581Parlament": 7080,
  "publik": 7081,
  "\u2581za\u0142\u0105czniku": 7082,
  "\u2581dysk": 7083,
  "\u2581ticket": 7084,
  "\u2581du\u017cej": 7085,
  "\u2581updated": 7086,
  "\u2581dost\u0119pnego": 7087,
  "\u2581Change": 7088,
  "\")": 7089,
  "\u2581Wireless": 7090,
  "\u2581sterownik\u00f3w": 7091,
  "link": 7092,
  "czo": 7093,
  "\u2581integration": 7094,
  "\u2581Linux": 7095,
  "\u2581zwr\u00f3ci\u0107": 7096,
  "cznych": 7097,
  "\u2581Jeden": 7098,
  "lation": 7099,
  "\u2581wykorzystania": 7100,
  "\u2581PhenQ": 7101,
  "\u2581African": 7102,
  "\u25811999": 7103,
  "\u2581fitness": 7104,
  "\u2581tru": 7105,
  "\u2581niepo": 7106,
  "\u2581measure": 7107,
  "nn": 7108,
  "\u25815-": 7109,
  "\u2581tour": 7110,
  "\u2581Cur": 7111,
  "cyjne": 7112,
  "szt": 7113,
  "\u2581[1]": 7114,
  "\u2581Tim": 7115,
  "\u2581spent": 7116,
  "\u2581slow": 7117,
  "RC": 7118,
  "\u2581wys\u0142a\u0107": 7119,
  "\u2581budowy": 7120,
  "\u2581fixed": 7121,
  "\u2581Obs\u0142ugiwane": 7122,
  "\u2581Len": 7123,
  "\u2581Adventure": 7124,
  "\u2581Francji": 7125,
  "\u2581Dollars": 7126,
  "\u2581pyta": 7127,
  "\u2581Articles": 7128,
  "\u2581firm\u0119": 7129,
  "\u2581wedding": 7130,
  "\u2581replaced": 7131,
  "\u2581instalacj\u0119": 7132,
  "\u2581interface": 7133,
  "\u2581modelu": 7134,
  "\u2581translations": 7135,
  "\u2581leader": 7136,
  "\u2581nazwisko": 7137,
  "\u2581konwersji": 7138,
  "\u2581czerwony": 7139,
  "\u2581Rosji": 7140,
  "\u2581typy": 7141,
  "\u2581pobieranie": 7142,
  "\u2581finished": 7143,
  "\u2581Ana": 7144,
  "\u258107": 7145,
  "\u2581accident": 7146,
  "dawa\u0107": 7147,
  "\u2581najta\u0144sze": 7148,
  "\u2581appreciate": 7149,
  "\u2581woda": 7150,
  "\u2581transakcji": 7151,
  "pper": 7152,
  "fit": 7153,
  "ille": 7154,
  "\u2581Pictures": 7155,
  "\u2581Image": 7156,
  "\u2581Connect": 7157,
  "\u2581przejrze\u0107": 7158,
  "\u2581biggest": 7159,
  "\u2581obs\u0142uguje": 7160,
  "sol": 7161,
  "\u2581Smoking": 7162,
  "\u2581\u015brodku": 7163,
  "\u2581phase": 7164,
  "\u2581M\u00f3wi": 7165,
  "\u2581zadania": 7166,
  "-6": 7167,
  "\u2581facet": 7168,
  "vid": 7169,
  "\u2581Hungary": 7170,
  "\u2581Popularne": 7171,
  "\u2581decyzj\u0119": 7172,
  "\u2581rid": 7173,
  "\u2581znany": 7174,
  "\u2581wykorzysta\u0107": 7175,
  "\u2581przyk\u0142ady": 7176,
  "\u2581although": 7177,
  "\u2581skuteczne": 7178,
  "\u2581szaf": 7179,
  "\u2581powinni\u015bmy": 7180,
  "\u2581Building": 7181,
  "owanej": 7182,
  "\u2581przewodnik": 7183,
  "\u2581bottom": 7184,
  "\u2581pe\u0142n\u0105": 7185,
  "\u2581Mus": 7186,
  "\u2581jump": 7187,
  "\u2581ofert\u0119": 7188,
  "\u2581glad": 7189,
  "owne": 7190,
  "\u2581movie": 7191,
  "\u2581bath": 7192,
  "\u2581nu": 7193,
  "\u2581priorytet": 7194,
  "\u2581Tools": 7195,
  "\u2581Thailand": 7196,
  "Li": 7197,
  "\u2581dalszej": 7198,
  "\u2581president": 7199,
  "\u2581prosto": 7200,
  "gle": 7201,
  "\u2581ogr\u00f3d": 7202,
  "\u2581znak": 7203,
  "\u2581mia\u0142y": 7204,
  "ient": 7205,
  "\u2581szybki": 7206,
  "s\u0142aw": 7207,
  "\u2581stats": 7208,
  "\u2581blow": 7209,
  "\u2581transform": 7210,
  "PO": 7211,
  "\u2581Cafe": 7212,
  "\u2581spo\u0142ecze\u0144stwa": 7213,
  "\u2581Cze\u015b\u0107": 7214,
  "\u2581fundamental": 7215,
  "\u2581opcj\u0119": 7216,
  "eo": 7217,
  "\u2581rejestracji": 7218,
  "gent": 7219,
  "\u2581zawieraj\u0105": 7220,
  "\u2581contribute": 7221,
  "\u2581spok\u00f3j": 7222,
  "\u2581Mieszkanie": 7223,
  "\u2581poka\u017c": 7224,
  "\u2581Oprogramowanie": 7225,
  "nictwo": 7226,
  "\u2581Peru": 7227,
  "\u2581um\u00f3w": 7228,
  "\u2581majority": 7229,
  "\u2581Partners": 7230,
  "iczny": 7231,
  "\u2581s\u0142ownika": 7232,
  "\u2581Dad": 7233,
  "\u2581regionie": 7234,
  "\u2581comparison": 7235,
  "\u2581everybody": 7236,
  "\u2581Mrs": 7237,
  "\u2581stream": 7238,
  "\u2581Ham": 7239,
  "\u2581stal": 7240,
  "\u2581zajmuje": 7241,
  "\u2581ode": 7242,
  "\u2581Hor": 7243,
  "\u2581\u015bmier\u0107": 7244,
  "\u2581zamiar": 7245,
  "\u2581podstaw": 7246,
  "\u2581pojazd\u00f3w": 7247,
  "\u2581Col": 7248,
  "\u2581tworzy": 7249,
  "\u2581sp\u00f3\u0142ki": 7250,
  "\u2581visual": 7251,
  "cej": 7252,
  "\u2581manufacturers": 7253,
  "\u2581waluty": 7254,
  "\u2581AG": 7255,
  "dpowiedzialno\u015bci": 7256,
  "\u2581pad": 7257,
  "dic": 7258,
  "lica": 7259,
  "\u2581collected": 7260,
  "encji": 7261,
  "HD": 7262,
  "\u2581Fer": 7263,
  "\u2581Small": 7264,
  "NI": 7265,
  "cor": 7266,
  "\u2581Rad": 7267,
  "\u2581boys": 7268,
  "ati": 7269,
  "ni\u0119cia": 7270,
  "gging": 7271,
  "\u2581Jetradar": 7272,
  "BS": 7273,
  "\u2581organisation": 7274,
  "\u2581kontek\u015bcie": 7275,
  "\u2581workers": 7276,
  "ians": 7277,
  "\u2581mikro": 7278,
  "kh": 7279,
  "\u2581College": 7280,
  "400": 7281,
  "vy": 7282,
  "\u2581zegar": 7283,
  "\u2581Opera": 7284,
  "\u2581pil": 7285,
  "\u2581Front": 7286,
  "\u2581walut": 7287,
  "\u2581Device": 7288,
  "94": 7289,
  "\u2581da\u0142": 7290,
  "\u2581achieved": 7291,
  "\u2581witryny": 7292,
  "\u2581Kre": 7293,
  "sure": 7294,
  "\u2581owner": 7295,
  "pia": 7296,
  "\u2581spring": 7297,
  "\u2581Ash": 7298,
  "\u2581My\u015blisz": 7299,
  "\u2581Pack": 7300,
  "\u2581trudno": 7301,
  "pra": 7302,
  "63": 7303,
  "\u2581Want": 7304,
  "\u2581w\u0142adz": 7305,
  "\u2581Serwis": 7306,
  "gua": 7307,
  "\u2581mountain": 7308,
  "\u2581Kas": 7309,
  "mini": 7310,
  "\u2581Falls": 7311,
  "\u2581kiedykolwiek": 7312,
  "\u2581trial": 7313,
  "\u258165": 7314,
  "\u2581Georgia": 7315,
  "\u0142\u0119": 7316,
  "\u2581Lub": 7317,
  "\u2581listopada": 7318,
  "dni": 7319,
  "\u2581\u015brodka": 7320,
  "osta": 7321,
  "\u2581Safety": 7322,
  "\u2581female": 7323,
  "gre": 7324,
  "als": 7325,
  "\u2581lepsze": 7326,
  "\u2581cloud": 7327,
  "oni": 7328,
  "kung": 7329,
  "\u2581systemem": 7330,
  "\u2581prace": 7331,
  "\u2581classic": 7332,
  "\u2581prawdopodobnie": 7333,
  "\u2581audit": 7334,
  "nos": 7335,
  "\u258139": 7336,
  "shire": 7337,
  "\u2581Mike": 7338,
  "\u2581stopniu": 7339,
  "\u2581Clen": 7340,
  "zne": 7341,
  "\u2581hostels": 7342,
  "LO": 7343,
  "\u2581ver": 7344,
  "\u2581sal": 7345,
  "\u2581Go\u015bci": 7346,
  "\u2581Tel": 7347,
  "model": 7348,
  "\u2581r\u0119ce": 7349,
  "\u2581Den": 7350,
  "\u2581saved": 7351,
  "\u2581Henry": 7352,
  "itive": 7353,
  "\u2581doskonale": 7354,
  "\u2581gru": 7355,
  "pat": 7356,
  "\u2581dangerous": 7357,
  "\u2581challenge": 7358,
  "gl\u0105d": 7359,
  "\u2581swimming": 7360,
  "\u2581harmoni": 7361,
  "\u2581des": 7362,
  "\u2581Republika": 7363,
  "ock": 7364,
  "\u2581BE": 7365,
  "\u2581mia\u0142o": 7366,
  "\u258150%": 7367,
  "\u2581potrafi": 7368,
  "\u2581Qu": 7369,
  "\u2581beat": 7370,
  "\u2581zatrzyma": 7371,
  "sc": 7372,
  "\u2581Obraz": 7373,
  "\u2581apartamenty": 7374,
  "\u2581opcje": 7375,
  "\u2581bud\u017cet": 7376,
  "\u2581cl": 7377,
  "Se": 7378,
  "\u2581tekstu": 7379,
  "ido": 7380,
  "lno\u015bci": 7381,
  "stry": 7382,
  "\u2581Manufacturer": 7383,
  "\u2581dostawca": 7384,
  "kszta\u0142": 7385,
  "she": 7386,
  "ied": 7387,
  "owanym": 7388,
  "\u2581osi\u0105gni\u0119cia": 7389,
  "\u2581Low": 7390,
  "\u2581gdzie\u015b": 7391,
  "\u2581podstawowe": 7392,
  "ciel": 7393,
  "\u2581Wy\u015bwietl": 7394,
  "\u2581primary": 7395,
  "\u2581precise": 7396,
  "\u2581daw": 7397,
  "\u2581Grill": 7398,
  "\u2581odpowiedzialny": 7399,
  "\u2581Przeczytaj": 7400,
  "\u2581jo": 7401,
  "app": 7402,
  "\u2581obrazy": 7403,
  "\u2581rower": 7404,
  "\u2581ci\u0105g": 7405,
  "\u2581niczego": 7406,
  "\u2581nowoczesne": 7407,
  "\u2581leg": 7408,
  "\u2581valid": 7409,
  "anych": 7410,
  "IE": 7411,
  "\u2581depending": 7412,
  "\u2581twarzy": 7413,
  "\u2581ahead": 7414,
  "\u2581perfectly": 7415,
  "\u2581CH": 7416,
  "\u2581Organ": 7417,
  "\u2581ski": 7418,
  "ni\u017c": 7419,
  "iec": 7420,
  "\u2581Hire": 7421,
  "\u2581stosowany": 7422,
  "kus": 7423,
  "\u2581beyond": 7424,
  "\u2581okresu": 7425,
  "\u2581Norway": 7426,
  "\u2581participants": 7427,
  "\u2581Spec": 7428,
  "\u2581dow\u00f3d": 7429,
  "gwiazdkowe": 7430,
  "\u2581obejmuj\u0105": 7431,
  "\u2581procedur": 7432,
  "atory": 7433,
  "\u2581Battle": 7434,
  "Je": 7435,
  "\u2581scen": 7436,
  "\u2581Winter": 7437,
  "\u2581meat": 7438,
  "\u2581Pa\u0144stw": 7439,
  "\u2581Pewnie": 7440,
  "\u2581moved": 7441,
  "\u2581s\u0142aby": 7442,
  "\u201d)": 7443,
  "licz": 7444,
  "\u2581zdoby\u0107": 7445,
  "\u2581sym": 7446,
  "\u2581publicznych": 7447,
  "\u2581privacy": 7448,
  "\u2581wojsk": 7449,
  "\u2581Sk\u0105d": 7450,
  "\u2581po\u015bredni": 7451,
  "\u2581ci\u0105gle": 7452,
  "\u2581Bob": 7453,
  "\u2581Minute": 7454,
  "\u2581dba": 7455,
  "\u2581testing": 7456,
  "\u2581Sil": 7457,
  "ough": 7458,
  "\u2581ras": 7459,
  "wiesz": 7460,
  "\u2581prove": 7461,
  "\u2581skutki": 7462,
  "\u2581WordPress": 7463,
  "\u2581szcze": 7464,
  "HO": 7465,
  "\u2581Mediolan": 7466,
  "\u2581\u017cy\u0107": 7467,
  "cat": 7468,
  "\u2581manager": 7469,
  "\u2581flowers": 7470,
  "pres": 7471,
  "\u2581boost": 7472,
  "\u2581conversion": 7473,
  "ogen": 7474,
  "\u2581Regional": 7475,
  "\u2581zawarte": 7476,
  "\u2581potrzebujesz": 7477,
  "\u2581trzecich": 7478,
  "\u2581compliance": 7479,
  "\u2581Broadcom": 7480,
  "ration": 7481,
  "\u2581relation": 7482,
  "\u2581koszyka": 7483,
  "\u2581syna": 7484,
  "\u2581Ang": 7485,
  "\u2581websites": 7486,
  "\u2581m\u00f3wi\u0142": 7487,
  "\u2581mineral": 7488,
  "nienia": 7489,
  "\u2581territory": 7490,
  "\u2581generally": 7491,
  "\u2581atak": 7492,
  "organiz": 7493,
  "wit": 7494,
  "\u2581categories": 7495,
  "cause": 7496,
  "\u2581Guests": 7497,
  "\u2581Oliwka": 7498,
  "\u2581obs\u0142uga": 7499,
  "\u2581wyposa\u017cony": 7500,
  "\u2581reported": 7501,
  "\u2581sensor": 7502,
  "\u2581Posi\u0142ki": 7503,
  "76": 7504,
  "\u2581constantly": 7505,
  "\u2581implemented": 7506,
  "\u2581composition": 7507,
  "\u2581krew": 7508,
  "cam": 7509,
  "\u2581Fin": 7510,
  "\u2581confirm": 7511,
  "\u2581dozens": 7512,
  "\u2581sounds": 7513,
  "\u2581objects": 7514,
  "\u2581sekcji": 7515,
  "\u2581kursy": 7516,
  "\u2581obywateli": 7517,
  "\u2581aren": 7518,
  "\u2581Brytanii": 7519,
  "cur": 7520,
  "\u2581agreed": 7521,
  "jan": 7522,
  "\u2581NO": 7523,
  "sti": 7524,
  "zd": 7525,
  "\u25812-": 7526,
  "\u2581cart": 7527,
  "\u2581obie": 7528,
  "nne": 7529,
  "\u2581consumer": 7530,
  "\u2581posiadaj\u0105": 7531,
  "\u2581przyjazny": 7532,
  "kop": 7533,
  "\u2581procent": 7534,
  "\u2581WE": 7535,
  "\u2581cream": 7536,
  "\u2581zapewniaj\u0105": 7537,
  "\u2581komp": 7538,
  "\u258144": 7539,
  "\u2581ca\u0142kowitego": 7540,
  "poli": 7541,
  "gram": 7542,
  "\u2581advertising": 7543,
  "\u2581zap": 7544,
  "j\u015bcie": 7545,
  "\u2581department": 7546,
  "2009": 7547,
  "\u2581Sklep": 7548,
  "\u2581specjalnie": 7549,
  "\u2581conducted": 7550,
  "\u2581ucz": 7551,
  "\u2581Por\u00f3wnaj": 7552,
  "\u2581cho": 7553,
  "\u2581casino": 7554,
  "NC": 7555,
  "\u2581porn": 7556,
  "zin": 7557,
  "\u2581lin": 7558,
  "\u2581m\u00f3wi\u0119": 7559,
  "\u2581tree": 7560,
  "\u2581Delhi": 7561,
  "ically": 7562,
  "\u2581ochron\u0119": 7563,
  "iti": 7564,
  "\u2581Hal": 7565,
  "\u2581Sie": 7566,
  "\u2581Opr\u00f3cz": 7567,
  "\u2581reduced": 7568,
  "tec": 7569,
  "\u2581Spirit": 7570,
  "\u2581kluczowe": 7571,
  "\u2581idzie": 7572,
  "\u2581SC": 7573,
  "\u2581suddenly": 7574,
  "tory": 7575,
  "olu": 7576,
  "\u2581operacji": 7577,
  "Te": 7578,
  "\u2581kom\u00f3rkowy": 7579,
  "spect": 7580,
  "lf": 7581,
  "\u2581Detailed": 7582,
  "\u2581Forest": 7583,
  "\u2581notification": 7584,
  "\u2581odpowiedniego": 7585,
  "\u2581trasie": 7586,
  "\u2581Put": 7587,
  "\u2581przewod": 7588,
  "\u2581S\u0142uchaj": 7589,
  "\u2581establishment": 7590,
  "\u2581procesie": 7591,
  "\u2581removal": 7592,
  "gas": 7593,
  "\u2581Pub": 7594,
  "\u2581miejscem": 7595,
  "\u2581except": 7596,
  "\u2581p\u0142yt": 7597,
  "\u2581Switch": 7598,
  "\u2581UN": 7599,
  "\u2581VAT": 7600,
  "\u2581Sim": 7601,
  "\u2581przyk\u0142ad\u00f3w": 7602,
  "arz": 7603,
  "\u2581provision": 7604,
  "\u2581loved": 7605,
  "lnej": 7606,
  "\u2581wygra": 7607,
  "tyczny": 7608,
  "mierz": 7609,
  "\u2581gal": 7610,
  "\u2581heavy": 7611,
  "\u2581s\u0142\u00f3w": 7612,
  "i\u0142a": 7613,
  "emy": 7614,
  "sku": 7615,
  "\u2581wska\u017aniki": 7616,
  "\u0142owi": 7617,
  "int": 7618,
  "\u2581Grupy": 7619,
  "\u2581udzia\u0142u": 7620,
  "\u2581walls": 7621,
  "Lo": 7622,
  "obo": 7623,
  "\u2581fields": 7624,
  "\u2581sm": 7625,
  "\u2581Brazil": 7626,
  "sel": 7627,
  "\u2581SK": 7628,
  "\u2581determined": 7629,
  "\u2581attractive": 7630,
  "awa": 7631,
  "\u2581zgodne": 7632,
  "EE": 7633,
  "PI": 7634,
  "\u2581commitment": 7635,
  "trop": 7636,
  "\u2581Gluten": 7637,
  "\u2581\u0141a": 7638,
  "ovo": 7639,
  "\u2581Gallery": 7640,
  "\u2581wybiera": 7641,
  "\u2581looked": 7642,
  "cul": 7643,
  "owaniem": 7644,
  "\u2581smak": 7645,
  "\u2581Tours": 7646,
  "\u2581Przegl\u0105daj": 7647,
  "\u2581rozporz\u0105dzenie": 7648,
  "minute": 7649,
  "tical": 7650,
  "\u2581bought": 7651,
  "\u2581Sin": 7652,
  "\u2581Skip": 7653,
  "\u2581podstawowych": 7654,
  "yjne": 7655,
  "\u2581AL": 7656,
  "\u017b": 7657,
  "\u2581pi\u0119kny": 7658,
  "\u2581Prom": 7659,
  "\u2581Dun": 7660,
  "\u2581Richard": 7661,
  "\u2581Autor": 7662,
  "\u2581otherwise": 7663,
  "\u2581szczeg\u00f3\u0142owa": 7664,
  "\u2581south": 7665,
  "\u2581Speed": 7666,
  "\u2581detail": 7667,
  "\u2581prosimy": 7668,
  "\u2581dostawc\u00f3w": 7669,
  "position": 7670,
  "czni": 7671,
  "bierz": 7672,
  "\u2581obrotu": 7673,
  "\u2581roll": 7674,
  "\u2581Bas": 7675,
  "\u2581Exchange": 7676,
  "\u2581delay": 7677,
  "\u2581delivered": 7678,
  "\u2581Account": 7679,
  "OM": 7680,
  "pur": 7681,
  "\u2581truck": 7682,
  "\u2581Wtedy": 7683,
  "\u2581Mak": 7684,
  "zka": 7685,
  "\u2581hidden": 7686,
  "\u2581ham": 7687,
  "\u2581instructions": 7688,
  "\u2581refer": 7689,
  "\u2581P\u00f3\u0142nocna": 7690,
  "ses": 7691,
  "\u0142ych": 7692,
  "emu": 7693,
  "\u2581resort": 7694,
  "\u2581concerns": 7695,
  "\u2581wykorzysta": 7696,
  "\u2581dalszym": 7697,
  "kov": 7698,
  "y\u0142a": 7699,
  "aria": 7700,
  "\u2581introduced": 7701,
  "g\u0142a": 7702,
  "\u2581Gri": 7703,
  "\u2581FOR": 7704,
  "\u2581Ger": 7705,
  "\u2581par\u0119": 7706,
  "\u2581certificate": 7707,
  "\u2581\u017ale": 7708,
  "\u2581pochodzenia": 7709,
  "\u2581zapobiega": 7710,
  "\u2581dzi": 7711,
  "\u2581rodzina": 7712,
  "usa": 7713,
  "\u2581Florence": 7714,
  "\u2581d\u0142ugo\u015bci": 7715,
  "tine": 7716,
  "\u2581Wyposa\u017cenie": 7717,
  "dro\u017c": 7718,
  "\u2581participation": 7719,
  "\u2581rozdzia\u0142": 7720,
  "\u2581dobr\u0105": 7721,
  "\u2581output": 7722,
  "\u2581rise": 7723,
  "get": 7724,
  "\u2581pieprz": 7725,
  "FR": 7726,
  "\u2581LA": 7727,
  "\u2581oparte": 7728,
  "\u2581Virtual": 7729,
  "\u2581roof": 7730,
  "84": 7731,
  "load": 7732,
  "\u2581pleasure": 7733,
  "bad": 7734,
  "bert": 7735,
  "\u2581matka": 7736,
  "\u2581helped": 7737,
  "\u2581FI": 7738,
  "\u2581funny": 7739,
  "\u2581dokona": 7740,
  "kel": 7741,
  "\u2581suggest": 7742,
  "000": 7743,
  "\u2581Ray": 7744,
  "niejszy": 7745,
  "kcji": 7746,
  "\u2581martw": 7747,
  "jon": 7748,
  "\u2581Training": 7749,
  "\u2581przypomina": 7750,
  "\u2581rozpocz\u0105\u0107": 7751,
  "late": 7752,
  "\u2581wpis": 7753,
  "like": 7754,
  "\u2581Antonio": 7755,
  "\u2581Basic": 7756,
  "chyl": 7757,
  "`": 7758,
  "\u2581shut": 7759,
  "\u2581ograniczenia": 7760,
  "\u2581zdolno\u015bci": 7761,
  "oka": 7762,
  "\u2581(5": 7763,
  "sville": 7764,
  "\u2581sposobem": 7765,
  "\u2581B\u0119d\u0119": 7766,
  "\u2581zaraz": 7767,
  "ender": 7768,
  "\u2581\u0142ad": 7769,
  "\u2581technik": 7770,
  "\u2581zgodno\u015bci": 7771,
  "\u2581duty": 7772,
  "tym": 7773,
  "\u2581whereas": 7774,
  "vir": 7775,
  "\u2581definition": 7776,
  "\u2581wyra\u017anie": 7777,
  "\u2581steroids": 7778,
  "\u2581uzyska": 7779,
  "\u2581Czym": 7780,
  "GE": 7781,
  "\u2581rozumiem": 7782,
  "\u2581Cz\u0119\u015bci": 7783,
  "\u2581zarezerwuj": 7784,
  "\u2581coast": 7785,
  "cial": 7786,
  "\u2581Happy": 7787,
  "stat": 7788,
  "\u2581bear": 7789,
  "\u2581zada\u0144": 7790,
  "2/": 7791,
  "\u2581Vol": 7792,
  "\u2581pyta\u0144": 7793,
  "\u2581mi\u0142o": 7794,
  "\u2581wst\u0119p": 7795,
  "\u2581grant": 7796,
  "\u2581earn": 7797,
  "ters": 7798,
  "\u2581extent": 7799,
  "\u2581treated": 7800,
  "\u2581og\u00f3lne": 7801,
  "\u2581dosta\u0142": 7802,
  "\u2581Fashion": 7803,
  "\u2581Sco": 7804,
  "\u2581wszystkiego": 7805,
  "\u2581statement": 7806,
  "\u2581Gen": 7807,
  "\u2581wyci\u0105g": 7808,
  "\u2581orders": 7809,
  "gie": 7810,
  "Ha": 7811,
  "\u2581Zam": 7812,
  "\u2581wytwarza": 7813,
  "\u2581recenzji": 7814,
  "\u2581Roll": 7815,
  "\u2581wysok\u0105": 7816,
  "icznie": 7817,
  "\u25811.1": 7818,
  "figur": 7819,
  "ison": 7820,
  "\u2581Sy": 7821,
  "rry": 7822,
  "\u2581pokazuj\u0105c": 7823,
  "\u2581m\u00f3wi\u0105": 7824,
  "\u2581R\u00f3\u017c": 7825,
  "2013": 7826,
  "\u2581Turn": 7827,
  "\u2581Fal": 7828,
  "\u2581pozostaje": 7829,
  "VI": 7830,
  "\u2581manufacturing": 7831,
  "ency": 7832,
  "NY": 7833,
  "\u2581advertisement": 7834,
  "\u2581Bathroom": 7835,
  "\u2581niech": 7836,
  "pak": 7837,
  "\u2581lift": 7838,
  "\u2581trading": 7839,
  "cm": 7840,
  "\u2581wysoko": 7841,
  "\u2581issued": 7842,
  "\u2581director": 7843,
  "\u2581accepted": 7844,
  "\u2581Zealand": 7845,
  "\u2581Cable": 7846,
  "\u2581ostatnio": 7847,
  "\u2581ch\u0142opak": 7848,
  "phone": 7849,
  "chow": 7850,
  "\u2581obs": 7851,
  "\u2581approved": 7852,
  "5/": 7853,
  "\u2581nauczyciel": 7854,
  "\u2581whom": 7855,
  "\u2581zajmie": 7856,
  "\u2581panu": 7857,
  "TH": 7858,
  "\u2581gospodarz": 7859,
  "\u2581\u017ar\u00f3de\u0142": 7860,
  "\u2581Paper": 7861,
  "ded": 7862,
  "\u2581clothes": 7863,
  "\u2581substances": 7864,
  "\u2581combined": 7865,
  "\u2581throw": 7866,
  "\u2581Extension": 7867,
  "\u2581razu": 7868,
  "state": 7869,
  "\u2581adapt": 7870,
  "\u2581kinds": 7871,
  "\u2581circumstances": 7872,
  "\u2581terytorium": 7873,
  "\u2581poprawy": 7874,
  "2008": 7875,
  "\u2581ga\u0142\u0119zi": 7876,
  "...\"": 7877,
  "\u2581ear": 7878,
  "\u2581invite": 7879,
  "\u2581student\u00f3w": 7880,
  "\u2581rozmawia": 7881,
  "\u2581lotnisko": 7882,
  "\u2581CS": 7883,
  "\u2581stoi": 7884,
  "\u2581asking": 7885,
  "TI": 7886,
  "\u2581prowadzi\u0107": 7887,
  "\u2581Mis": 7888,
  "kowa\u0107": 7889,
  "\u2581Young": 7890,
  "\u2581zbiera": 7891,
  "gger": 7892,
  "\u2581proces\u00f3w": 7893,
  "\u258101": 7894,
  "\u2581hol": 7895,
  "\u2581dotycz\u0105cy": 7896,
  "\u2581newsletter": 7897,
  "\u2581sierpnia": 7898,
  "\u2581Denmark": 7899,
  "aln\u0105": 7900,
  "\u2581Istanbul": 7901,
  "TR": 7902,
  "\u2581Hua": 7903,
  "ug": 7904,
  "\u2581managed": 7905,
  "\u2581Financial": 7906,
  "DC": 7907,
  "\u2581upraw": 7908,
  "\u2581grupa": 7909,
  "\u2581wyj\u0105tkiem": 7910,
  "\u2581bram": 7911,
  "\u2581painting": 7912,
  "\u2581Enterprise": 7913,
  "\u2581uwadze": 7914,
  "\u2581najlepszym": 7915,
  "e\u0142": 7916,
  "kor": 7917,
  "\u2581temp": 7918,
  "\u2581czterech": 7919,
  "\u2581cie": 7920,
  "\u2581plate": 7921,
  "\u2581reflect": 7922,
  "rr": 7923,
  "\u2581Creek": 7924,
  "g\u0119": 7925,
  "law": 7926,
  "\u2581fill": 7927,
  "\u2581obszar\u00f3w": 7928,
  "LS": 7929,
  "\u2581bezpo\u015brednie": 7930,
  "\u2581cur": 7931,
  "\u25815)": 7932,
  "\u2581fragment": 7933,
  "\u2581czyta": 7934,
  "\u2581Ko\u015bci\u00f3\u0142": 7935,
  "\u2581organy": 7936,
  "\u2581terminal": 7937,
  "ywa": 7938,
  "\u2581calling": 7939,
  "av": 7940,
  "\u2581desire": 7941,
  "tyk": 7942,
  "\u2581Papierosy": 7943,
  "Con": 7944,
  "\u2581kit": 7945,
  "\u2581Eco": 7946,
  "bach": 7947,
  "\u2581wej\u015b\u0107": 7948,
  "\u2581800": 7949,
  "\u2581pocz": 7950,
  "\u2581wonder": 7951,
  "\u2581Izrael": 7952,
  "\u2581implementing": 7953,
  "\u2581mieszka\u0144": 7954,
  "\u2581vision": 7955,
  "\u2581ostatni": 7956,
  "zony": 7957,
  "\u2581u\u017cytkownik": 7958,
  "\u2581Kap": 7959,
  "\u2581chosen": 7960,
  "\u2581otrzyma\u0142": 7961,
  "Ex": 7962,
  "\u2581articles": 7963,
  "\u2581Create": 7964,
  "fen": 7965,
  "exe": 7966,
  "\u2581failure": 7967,
  "\u2581Chocia\u017c": 7968,
  "g\u00f3l": 7969,
  "\u2581Cell": 7970,
  "tim": 7971,
  "cing": 7972,
  "\u2581staw": 7973,
  "\u2581otrzymuje": 7974,
  "\u2581regulation": 7975,
  "\u2581matters": 7976,
  "\u2581ki": 7977,
  "\u2581kogo": 7978,
  "\u2581Chodzi": 7979,
  "\u2581Pozna\u0144": 7980,
  "\u2581earlier": 7981,
  "\u2581prawem": 7982,
  "\u2581north": 7983,
  "\u2581zwi\u0119kszenie": 7984,
  "\u2581sha": 7985,
  "\u2581honey": 7986,
  "\u2581Dwa": 7987,
  "cut": 7988,
  "\u2581gospodarki": 7989,
  "\u2581\u017by": 7990,
  "\u2581Restauracja": 7991,
  "\u2581wyraz": 7992,
  "dzki": 7993,
  "\u2581effort": 7994,
  "\u2581border": 7995,
  "tive": 7996,
  "HA": 7997,
  "eon": 7998,
  "\u2581indicated": 7999,
  "\u2581raise": 8000,
  "woj": 8001,
  "izer": 8002,
  "\u2581Thai": 8003,
  "\u2581trzeci": 8004,
  "\u2581Gas": 8005,
  "\u2581osob\u0105": 8006,
  "\u2581tkanki": 8007,
  "\u2581association": 8008,
  "\u2581Dream": 8009,
  "\u2581Charlie": 8010,
  "\u2581Oz": 8011,
  "\u2581battery": 8012,
  "\u2581pack": 8013,
  "\u2581samochodem": 8014,
  "\u2581dysku": 8015,
  "\u2581podej\u015bcie": 8016,
  "\u2581relax": 8017,
  "\u2581lady": 8018,
  "\u2581Government": 8019,
  "TV": 8020,
  "\u2581skutecznie": 8021,
  "\u2581s\u0142owo": 8022,
  "\u2581ko\u015bci": 8023,
  "\u2581estate": 8024,
  "\u00f3j": 8025,
  "\u2581polu": 8026,
  "\u2581polskich": 8027,
  "\u2581occur": 8028,
  "\u2581desk": 8029,
  "\u2581kontynu": 8030,
  "\u2581Ads": 8031,
  "\u00f3z": 8032,
  "kro": 8033,
  "\u2581effectively": 8034,
  "\u2581drog\u0119": 8035,
  "\u017cu": 8036,
  "bat": 8037,
  "\u2581grand": 8038,
  "\u2581Musi": 8039,
  "\u2581Juan": 8040,
  "8/": 8041,
  "\u2581pieces": 8042,
  "hand": 8043,
  "\u2581daty": 8044,
  "\u2581followed": 8045,
  "\u2581szczeg\u00f3\u0142y": 8046,
  "\u2581Medical": 8047,
  "\u2581FC": 8048,
  "\u2581Jednak\u017ce": 8049,
  "\u2581pewnie": 8050,
  "\u2581Pass": 8051,
  "\u2581infection": 8052,
  "\u2581Po\u0142udniowej": 8053,
  "\u2581ca\u0142kiem": 8054,
  "\u2581przyjmuje": 8055,
  "\u2581kuchnia": 8056,
  "\u2581dating": 8057,
  "\u2581nap\u0119d": 8058,
  "\u2581aktualnych": 8059,
  "\u2581challenges": 8060,
  "\u2581rezerw": 8061,
  "\u2581lokal": 8062,
  "\u2581Spi": 8063,
  "\u2581Form": 8064,
  "\u2581Chile": 8065,
  "\u2581strategic": 8066,
  "\u2581constitute": 8067,
  "\u2581Fan": 8068,
  "\u2581Cape": 8069,
  "\u2581books": 8070,
  "\u2581powinni": 8071,
  "LD": 8072,
  "uring": 8073,
  "\u2581bud": 8074,
  "\u2581Och": 8075,
  "\u2581Rob": 8076,
  "\u2581Platform": 8077,
  "\u2581wykorzystywane": 8078,
  "\u2581Mimo": 8079,
  "gres": 8080,
  "prowadzi\u0142": 8081,
  "illo": 8082,
  "ori": 8083,
  "\u2581pairs": 8084,
  "\u2581define": 8085,
  "nosi": 8086,
  "\u2581akt": 8087,
  "\u2581pracowa\u0142": 8088,
  "89": 8089,
  "SD": 8090,
  "\u2581deposit": 8091,
  "\u2581Dal": 8092,
  "\u2581li\u015bcie": 8093,
  "\u2581Po\u0142udniowa": 8094,
  "ome": 8095,
  "\u2581Thomas": 8096,
  "n\u0119\u0142a": 8097,
  "ktor": 8098,
  "What": 8099,
  "\u2581technicznych": 8100,
  "\u2581emisji": 8101,
  "\u2581Friday": 8102,
  "\u2581rosyjski": 8103,
  "\u2581g\u0142\u00f3wnej": 8104,
  "nienie": 8105,
  "\u2581kla": 8106,
  "hor": 8107,
  "\u2581Currently": 8108,
  "rys": 8109,
  "\u0144skiej": 8110,
  "mieni": 8111,
  "vor": 8112,
  "\u2581packaging": 8113,
  "\u2581fund": 8114,
  "\u2581Dzi\u0119kujemy": 8115,
  "\u2581powiedzia\u0142a": 8116,
  "\u2581wagi": 8117,
  "ras": 8118,
  "\u2581PE": 8119,
  "\u2581pod\u0142\u0105czone": 8120,
  "\u2581u\u017cywany": 8121,
  "\u2581okazj\u0119": 8122,
  "\u2581sk\u0142adnik\u00f3w": 8123,
  "oby": 8124,
  "\u2581pobrania": 8125,
  "\u2581Outdoor": 8126,
  "\u2581uzasadni": 8127,
  "\u2581representatives": 8128,
  "\u2581porusza": 8129,
  "\u2581escape": 8130,
  "\u2581spotyka": 8131,
  "\u2581organisations": 8132,
  "click": 8133,
  "\u2581sustainable": 8134,
  "\u2581Aplikacje": 8135,
  "\u2581spe\u0142nia": 8136,
  "\u2581Niestety": 8137,
  "\u2581worse": 8138,
  "\u2581Toronto": 8139,
  "\u2581Discover": 8140,
  "\u2581cleaning": 8141,
  "\u2581signed": 8142,
  "\u2581GT": 8143,
  "czona": 8144,
  "\u2581By\u0142a": 8145,
  "nan": 8146,
  "print": 8147,
  "\u2581cer": 8148,
  "jskie": 8149,
  "\u2581destination": 8150,
  "ione": 8151,
  "\u2581We\u017a": 8152,
  "\u2581m\u0119\u017cczyzna": 8153,
  "82": 8154,
  "\u2581tradition": 8155,
  "\u2581Afryka": 8156,
  "life": 8157,
  "\u2581wchodzi": 8158,
  "PP": 8159,
  "\u2581thousand": 8160,
  "\u2581obs\u0142ugiwane": 8161,
  "ern": 8162,
  "\u2581AR": 8163,
  "\u2581Matt": 8164,
  "Ta": 8165,
  "mus": 8166,
  "\u2581Table": 8167,
  "\u25811)": 8168,
  "\u2581droga": 8169,
  "ject": 8170,
  "\u2581Mother": 8171,
  "ka\u017c": 8172,
  "\u2581Ministry": 8173,
  "waj": 8174,
  "\u2581Girl": 8175,
  "\u2581najwy\u017cszej": 8176,
  "\u2581nasi": 8177,
  "\u2581Pal": 8178,
  "\u2581transmission": 8179,
  "\u2581przemys\u0142": 8180,
  "\u2581stupid": 8181,
  "\u2581jednostki": 8182,
  "OK": 8183,
  "\u2581paint": 8184,
  "\u2581valuable": 8185,
  "\u2581m\u00f3wisz": 8186,
  "\u2581beds": 8187,
  "PT": 8188,
  "\u2581seeing": 8189,
  "\u2581Nothing": 8190,
  "\u2581dziewczyny": 8191,
  "\u2581Des": 8192,
  "\u2581najcz\u0119\u015bciej": 8193,
  "brze": 8194,
  "\u2581Ubuntu": 8195,
  "\u2581sample": 8196,
  "\u2581kolei": 8197,
  "\u2581appears": 8198,
  "\u2581Komentarze": 8199,
  "\u2581instance": 8200,
  "lek": 8201,
  "nom": 8202,
  "\u2581zmienia\u0107": 8203,
  "\u2581remote": 8204,
  "\u2581sko": 8205,
  "\u2581Luc": 8206,
  "\u2581ksi\u0105\u017cki": 8207,
  "\u2581custom": 8208,
  "wszy": 8209,
  "taj": 8210,
  "dz\u0105c": 8211,
  "TP": 8212,
  "ywanie": 8213,
  "kg": 8214,
  "zio": 8215,
  "nale": 8216,
  "GO": 8217,
  "\u2581Iran": 8218,
  "chy": 8219,
  "\u2581pipe": 8220,
  "\u2581Electronic": 8221,
  "\u2581pure": 8222,
  "\u2581\u017cebym": 8223,
  "\u2581pierwsz\u0105": 8224,
  "\u2581twoich": 8225,
  "tycznych": 8226,
  "-7": 8227,
  "\u2581Their": 8228,
  "ert": 8229,
  "ryn": 8230,
  "mmer": 8231,
  "\u2581fashion": 8232,
  "\u2581Hy": 8233,
  "phy": 8234,
  "\u2581dobrej": 8235,
  "\u2581Chcia\u0142bym": 8236,
  "\u2581dost\u0119pno\u015b\u0107": 8237,
  "cast": 8238,
  "\u2581edge": 8239,
  "\u2581mieszka\u0144c\u00f3w": 8240,
  "\u2581stopni": 8241,
  "powiada": 8242,
  "vers": 8243,
  "rp": 8244,
  "\u2581cechy": 8245,
  "\u2581remind": 8246,
  "\u2581cr": 8247,
  "\u2581mat": 8248,
  "\u2581shared": 8249,
  "\u2581Custom": 8250,
  "meter": 8251,
  "\u2581Fun": 8252,
  "\u2581net": 8253,
  "\u2581klub": 8254,
  "\u2581ocenia": 8255,
  "\u2581Enter": 8256,
  "\u2581rur": 8257,
  "czk\u0119": 8258,
  "\u2581temperatura": 8259,
  "\u2581Kitchen": 8260,
  "\u2581meta": 8261,
  "\u2581chocia\u017c": 8262,
  "\u2581Posiada": 8263,
  "\u2581tabeli": 8264,
  "Air": 8265,
  "cznym": 8266,
  "\u2581sky": 8267,
  "\u2581umys\u0142": 8268,
  "\u2581cieszy\u0107": 8269,
  "\u2581prison": 8270,
  "\u2581defini": 8271,
  "\u2581organized": 8272,
  "6/": 8273,
  "\u2581Lab": 8274,
  "\u2581wiedz\u0119": 8275,
  "leg\u0142": 8276,
  "tics": 8277,
  "\u2581lie": 8278,
  "\u2581Previous": 8279,
  "\u2581wolno\u015bci": 8280,
  "\u2581burning": 8281,
  "\u2581du\u017cym": 8282,
  "pr\u0119\u017c": 8283,
  "\u2581ofercie": 8284,
  "sz\u0119": 8285,
  "lis": 8286,
  "\u2581bezpieczny": 8287,
  "dat": 8288,
  "\u2581significantly": 8289,
  "\u2581firm\u0105": 8290,
  "\u2581Bulgaria": 8291,
  "\u2581SU": 8292,
  "vert": 8293,
  "\u2581experienced": 8294,
  "\u0142bym": 8295,
  "\u2581pokoi": 8296,
  "\u2581Zak\u0142ad": 8297,
  "CZ": 8298,
  "\u2581widz\u0119": 8299,
  "\u2581Romantyczne": 8300,
  "\u2581wi\u0119kszej": 8301,
  "\u2581showed": 8302,
  "\u2581Cra": 8303,
  "\u2581bada": 8304,
  "\u2581changing": 8305,
  "ense": 8306,
  "\u2581zwi\u0105zek": 8307,
  "\u2581podmiot": 8308,
  "nie\u015b\u0107": 8309,
  "\u2581temporarily": 8310,
  "\u2581wild": 8311,
  "alu": 8312,
  "\u2581klimatyzacja": 8313,
  "\u2581wykorzystuje": 8314,
  "\u2581Chod\u017a": 8315,
  "\u2581Latin": 8316,
  "tric": 8317,
  "\u2581metres": 8318,
  "\u2581domestic": 8319,
  "\u2581Content": 8320,
  "\u2581injection": 8321,
  "\u2581Tym": 8322,
  "\u0142\u00f3\u017c": 8323,
  "pir": 8324,
  "\u2581scar": 8325,
  "\u2581DS": 8326,
  "prost": 8327,
  "\u2581Bud": 8328,
  "ota": 8329,
  "\u2581sta\u0142y": 8330,
  "mond": 8331,
  "\u2581prognozy": 8332,
  "\u2581Slovakia": 8333,
  "\u2581Niemiec": 8334,
  "\u2581w\u0142asn\u0105": 8335,
  "\u2581parameters": 8336,
  "jest": 8337,
  "\u2581bike": 8338,
  "\u2581Cams": 8339,
  "\u2581opieki": 8340,
  "\u2581exact": 8341,
  "\u2581pol": 8342,
  "ici": 8343,
  "\u2581Tru": 8344,
  "\u2581ain": 8345,
  "\u2581Lady": 8346,
  "\u2581Band": 8347,
  "\u2581Jorku": 8348,
  "ila": 8349,
  "\u2581Size": 8350,
  "ule": 8351,
  "73": 8352,
  "ariusz": 8353,
  "\u2581Partner": 8354,
  "\u2581Apps": 8355,
  "\u2581powoduje": 8356,
  "\u2581publicznej": 8357,
  "\u2581poj\u0119cia": 8358,
  "\u2581Polityka": 8359,
  "\u2581drugim": 8360,
  "\u2581Temperatura": 8361,
  "\u2581edit": 8362,
  "\u2581surprise": 8363,
  "inter": 8364,
  "7/": 8365,
  "\u2581pracuje": 8366,
  "\u2581eight": 8367,
  "\u2581Seafood": 8368,
  "\u2581korzystanie": 8369,
  "\u2581bet": 8370,
  "\u2581wyposa\u017cenie": 8371,
  "\u2581analyze": 8372,
  "\u2581Odpowied\u017a": 8373,
  "\u2581obszaru": 8374,
  "\u2581expensive": 8375,
  "\u2581U\u017cytkownik": 8376,
  "\u2581przetwarzanie": 8377,
  "ators": 8378,
  "cenie": 8379,
  "bas": 8380,
  "\u2581czu\u0142": 8381,
  "\u2581Gaz": 8382,
  "page": 8383,
  "\u2581odwiedzi\u0107": 8384,
  "\u2581podgl\u0105du": 8385,
  "ening": 8386,
  "\u2581najlepsza": 8387,
  "\u2581dziesi\u0105tki": 8388,
  "\u2581acts": 8389,
  "\u2581kat": 8390,
  "ines": 8391,
  "nor": 8392,
  "\u2581diety": 8393,
  "\u2581Should": 8394,
  "\u2581histori\u0119": 8395,
  "\u2581finger": 8396,
  "\u2581kwas": 8397,
  "FC": 8398,
  "\u2581criminal": 8399,
  "\u2581geo": 8400,
  "\u2581istot": 8401,
  "\u25813.0": 8402,
  "\u2581pacjent": 8403,
  "\u2581Industry": 8404,
  "enci": 8405,
  "kona": 8406,
  "FS": 8407,
  "\u2581pi\u0119ciu": 8408,
  "IO": 8409,
  "\u2581Oni": 8410,
  "\u2581Dzi\u015b": 8411,
  "\u2581Turcja": 8412,
  "\u2581najszybciej": 8413,
  "\u2581conflict": 8414,
  "cznego": 8415,
  "\u2581plug": 8416,
  "\u2581poz": 8417,
  "0.0": 8418,
  "\u2581kom\u00f3r": 8419,
  "\u2581Egypt": 8420,
  "Com": 8421,
  "trakt": 8422,
  "\u2581keeping": 8423,
  "\u2581zawarto\u015bci": 8424,
  "\u2581Boston": 8425,
  "\u2581Ask": 8426,
  "\u0105cy": 8427,
  "\u2581fabric": 8428,
  "struct": 8429,
  "\u2581depends": 8430,
  "\u2581unlimited": 8431,
  "\u2581widzia\u0142": 8432,
  "tyn": 8433,
  "\u2581Historia": 8434,
  "\u2581tab": 8435,
  "\u2581Kla": 8436,
  "kocha": 8437,
  "iona": 8438,
  "waniu": 8439,
  "\u2581Takie": 8440,
  "\u2581zarz\u0105dza": 8441,
  "\u2581interpret": 8442,
  "\u2581Lyrics": 8443,
  "owa\u0142y": 8444,
  "ics": 8445,
  "\u2581Jewish": 8446,
  "\u2581Bru": 8447,
  "\u2581Ven": 8448,
  "\u2581przepis": 8449,
  "tk": 8450,
  "\u2581ASRock": 8451,
  "moc": 8452,
  "\u2581gotowy": 8453,
  "mog": 8454,
  "\u2581ci\u0105\u017cy": 8455,
  "\u2581Stone": 8456,
  "kowi": 8457,
  "\u2581behalf": 8458,
  "\u2581nacisk": 8459,
  "\u2581Rewards": 8460,
  "\u2581sk\u0105d": 8461,
  "\u2581szans\u0119": 8462,
  "\u2581Jordan": 8463,
  "\u2581hiszpa\u0144ski": 8464,
  "\u2581accounts": 8465,
  "/2": 8466,
  "\u258146": 8467,
  "\u2581Captain": 8468,
  "\u2581formularz": 8469,
  "\u2581Guesthouse": 8470,
  "\u2581przyczyn": 8471,
  "\u2581Technologies": 8472,
  "\u2581substance": 8473,
  "olet": 8474,
  "\u2581znaczenia": 8475,
  "p\u0142at": 8476,
  "\u2581pleasant": 8477,
  "\u2581campsite": 8478,
  "cel": 8479,
  "\u2581draft": 8480,
  "\u2581aut": 8481,
  "\u2581zacz\u0105\u0107": 8482,
  "pseudo": 8483,
  "\u2581Categories": 8484,
  "\u2581podlega": 8485,
  "friendly": 8486,
  "\u2581cud": 8487,
  "\u2581\u015brodkami": 8488,
  "\u2581Fly": 8489,
  "\u2581wr\u00f3ci\u0142": 8490,
  "\u2581comply": 8491,
  "\u2581sie\u0107": 8492,
  "aj\u0105cy": 8493,
  "gwiazdkowy": 8494,
  "\u2581anywhere": 8495,
  "\u2581Aqua": 8496,
  "\u2581faster": 8497,
  "\u2581Uwaga": 8498,
  "\u2581podw\u00f3jne": 8499,
  "\u2581zdj\u0119ciami": 8500,
  "\u2581m\u0142odych": 8501,
  "\u2581Working": 8502,
  "\u2581podkre\u015bla": 8503,
  "nicze": 8504,
  "\u2581skontaktuj": 8505,
  "\u2581efforts": 8506,
  "\u2581wi\u0119ksz\u0105": 8507,
  "anu": 8508,
  "\u2581Industrial": 8509,
  "\u2581William": 8510,
  "\u2581specifications": 8511,
  "\u2581przesz\u0142o\u015bci": 8512,
  "\u2581teaching": 8513,
  "\u2581Rok": 8514,
  "\u2581\u015brodowisko": 8515,
  "BO": 8516,
  "\u2581biuro": 8517,
  "metr": 8518,
  "\u2581wiek": 8519,
  "\u2581agreements": 8520,
  "\u2581Wsp\u00f3lnot": 8521,
  "\u2581wykorzystanie": 8522,
  "\u2581Glen": 8523,
  "\u2581LCD": 8524,
  "-20": 8525,
  "\u2581powiem": 8526,
  "kier": 8527,
  "\u2581bal": 8528,
  "\u2581destroy": 8529,
  "\u2581Estonia": 8530,
  "\u2581liter": 8531,
  "amp": 8532,
  "ni\u0119": 8533,
  "\u2581hang": 8534,
  "\u2581pokaza\u0107": 8535,
  "\u2581Cast": 8536,
  "\u2581wkr\u00f3tce": 8537,
  "\u2581Dur": 8538,
  "800": 8539,
  "ett": 8540,
  "\u2581obrazu": 8541,
  "\u2581Emirates": 8542,
  "bur": 8543,
  "\u2581suit": 8544,
  "\u2581passed": 8545,
  "\u2581~": 8546,
  "\u2581Average": 8547,
  "ENT": 8548,
  "\u2581Chang": 8549,
  "\u2581hire": 8550,
  "\u2581participate": 8551,
  "sign": 8552,
  "8%": 8553,
  "ester": 8554,
  "\u2581usuwania": 8555,
  "hai": 8556,
  "\u2581Bios": 8557,
  "\u2581opiera": 8558,
  "\u2581Najlepsza": 8559,
  "\u2581mechanism": 8560,
  "\u2581Athens": 8561,
  "\u2581Wymowa": 8562,
  "\u2581d\u00f3\u0142": 8563,
  "\u2581judge": 8564,
  "\u2581despite": 8565,
  "\u2581internetowe": 8566,
  "\u2581fla": 8567,
  "FT": 8568,
  "\u2581drugie": 8569,
  "night": 8570,
  "\u2581Bet": 8571,
  "\u2581Simple": 8572,
  "\u2581Lar": 8573,
  "\u2581journey": 8574,
  "\u2581powder": 8575,
  "mination": 8576,
  "\u2581t\u0142uszcz": 8577,
  "\u2581leki": 8578,
  "\u2581pod\u0142\u0105czony": 8579,
  "\u2581zam\u00f3wienie": 8580,
  "\u2581balls": 8581,
  "\u0142\u00f3": 8582,
  "\u2581century": 8583,
  "\u2581fail": 8584,
  "\u2581SMS": 8585,
  "\u2581screw": 8586,
  "pomni": 8587,
  "\u2581wczoraj": 8588,
  "\u2581schedule": 8589,
  "\u2581przyjaciel": 8590,
  "\u2581sad": 8591,
  "\u2581Var": 8592,
  "\u2581Pl": 8593,
  "\u2581cykl": 8594,
  "uz": 8595,
  "/3": 8596,
  "001": 8597,
  "\u2581powod\u00f3w": 8598,
  "\u2581Sometimes": 8599,
  "\u2581Jezusa": 8600,
  "\u2581etykiet": 8601,
  "\u2581wybuch": 8602,
  "\u2581kul": 8603,
  "\u2581meant": 8604,
  "\u2581HE": 8605,
  "\u2581wahania": 8606,
  "\u2581pursuant": 8607,
  "\u2581klimat": 8608,
  "\u2581skr": 8609,
  "\u2581recognize": 8610,
  "\u2581w\u0105tpliwo\u015bci": 8611,
  "\u2581Ap": 8612,
  "\u2581zapach": 8613,
  "\u2581biznesu": 8614,
  "\u2581wydarze\u0144": 8615,
  "\u2581entered": 8616,
  "uck": 8617,
  "\u2581milion\u00f3w": 8618,
  "\u2581cal": 8619,
  "\u2581u\u017cytku": 8620,
  "keeping": 8621,
  "\u2581PP": 8622,
  "site": 8623,
  "\u2581Reg": 8624,
  "oid": 8625,
  "\u2581miejscach": 8626,
  "\u2581Steam": 8627,
  "\u2581dokona\u0107": 8628,
  "\u2581by\u015b": 8629,
  "\u2581ujawni": 8630,
  "din": 8631,
  "cious": 8632,
  "\u2581adults": 8633,
  "\u2581submit": 8634,
  "\u2581facilitate": 8635,
  "\u2581Football": 8636,
  "\u2581mention": 8637,
  "RM": 8638,
  "FF": 8639,
  "ND": 8640,
  "\u2581Odleg\u0142o\u015b\u0107": 8641,
  "\u2581dop\u00f3ki": 8642,
  "\u2581kierunek": 8643,
  "rab": 8644,
  "pha": 8645,
  "\u2581Mi\u0119dzynarodowe": 8646,
  "gn": 8647,
  "graph": 8648,
  "\u2581FM": 8649,
  "mate": 8650,
  "\u2581ko\u0144czy": 8651,
  "\u2581Ren": 8652,
  "\u2581Olympic": 8653,
  "nikiem": 8654,
  "\u2581feet": 8655,
  "\u2581Rev": 8656,
  "\u2581standing": 8657,
  "ders": 8658,
  "\u2581z\u0142y": 8659,
  "\u2581Eli": 8660,
  "siad": 8661,
  "\u2581follows": 8662,
  "\u2581bym": 8663,
  "pisane": 8664,
  "\u2581consideration": 8665,
  "\u2581Jigsaw": 8666,
  "\u2581Hiszpanii": 8667,
  "\u017cyw": 8668,
  "\u2581Jersey": 8669,
  "\u2581Both": 8670,
  "\u0142o\u015b\u0107": 8671,
  "MC": 8672,
  "\u2581wave": 8673,
  "BC": 8674,
  "\u2581kre": 8675,
  "\u2581czym\u015b": 8676,
  "\u2581adventure": 8677,
  "\u2581totally": 8678,
  "\u2581Kh": 8679,
  "\u2581organic": 8680,
  "\u2581Pot": 8681,
  "wodzi": 8682,
  "\u2581acquire": 8683,
  "\u2581rob": 8684,
  "grani": 8685,
  "\u2581Catholic": 8686,
  "\u2581Results": 8687,
  "\u2581intensity": 8688,
  "\u2581w\u0142osy": 8689,
  "away": 8690,
  "\u2581temperatur\u0119": 8691,
  "\u2581pomy\u015bl": 8692,
  "\u2581planned": 8693,
  "owo\u015bci": 8694,
  "ij": 8695,
  "\u2581g\u00f3r\u0119": 8696,
  "\u2581Font": 8697,
  "\u2581clock": 8698,
  "\u2581belongs": 8699,
  "\u2581fell": 8700,
  "\u2581bohater": 8701,
  "\u2581B\u0119dziesz": 8702,
  "\u2581Care": 8703,
  "etic": 8704,
  "\u2581removed": 8705,
  "ges": 8706,
  "\u2581windy": 8707,
  "\u2581functioning": 8708,
  "\u2581powsta\u0142": 8709,
  "\u2581wystarczaj\u0105co": 8710,
  "\u2581evil": 8711,
  "ava": 8712,
  "\u2581editor": 8713,
  "\u0142o\u017cy": 8714,
  "Sa": 8715,
  "\u0142ow": 8716,
  "\u2581y": 8717,
  "\u2581rozmawia\u0107": 8718,
  "\u2581wzywa": 8719,
  "\u2581Jackson": 8720,
  "jak": 8721,
  "\u2581Pom\u00f3\u017c": 8722,
  "\u2581gwarancji": 8723,
  "\u2581wy\u017cej": 8724,
  "\u2581regards": 8725,
  "\u2581counter": 8726,
  "\u2581Komitetu": 8727,
  "\u2581segment": 8728,
  "gla": 8729,
  "prezent": 8730,
  "\u2581filmu": 8731,
  "\u2581Lublin": 8732,
  "TY": 8733,
  "\u2581fal": 8734,
  "\u2581Dutch": 8735,
  "\u2581pozostawi": 8736,
  "\u2581aktor": 8737,
  "\u2581har": 8738,
  "\u2581COM": 8739,
  "\u2581szczeg\u00f3\u0142owe": 8740,
  "NS": 8741,
  "gri": 8742,
  "\u2581najszybszego": 8743,
  "\u2581BO": 8744,
  "\u2581wyj\u015b\u0107": 8745,
  "\u2581Application": 8746,
  "\u2581lokalnych": 8747,
  "\u2581initial": 8748,
  "\u2581Skills": 8749,
  "rant": 8750,
  "\u2581spin": 8751,
  "Ra": 8752,
  "Windows": 8753,
  "\u2581symptoms": 8754,
  "\u2581przeznaczone": 8755,
  "\u2581dworca": 8756,
  "\u2581recommendations": 8757,
  "UL": 8758,
  "\u2581Leave": 8759,
  "\u2581gi": 8760,
  "je\u017cd\u017ca": 8761,
  "\u2581chcia\u0142a": 8762,
  "nder": 8763,
  "\u2581manufacture": 8764,
  "rop": 8765,
  "\u2581museum": 8766,
  "\u2581restauracja": 8767,
  "\u2581Robi": 8768,
  "\u2581ekspert\u00f3w": 8769,
  "\u2581Dor": 8770,
  "\u2581Lek": 8771,
  "\u258147": 8772,
  "\u2581interview": 8773,
  "\u2581zawarto\u015b\u0107": 8774,
  "\u2581Rec": 8775,
  "\u2581sexual": 8776,
  "\u2581Snow": 8777,
  "\u258114-": 8778,
  "\u2581Source": 8779,
  "\u2581dowolnym": 8780,
  "pad\u0142": 8781,
  "non": 8782,
  "\u2581wysokie": 8783,
  "\u2581rain": 8784,
  "\u2581seek": 8785,
  "\u2581Could": 8786,
  "\u2581drugs": 8787,
  "\u2581\u015bwiatowej": 8788,
  "\u2581satelitarne": 8789,
  "\u2581kamer": 8790,
  "wyk": 8791,
  "LP": 8792,
  "\u2581Terms": 8793,
  "\u2581MachineryZone": 8794,
  "j\u0105cymi": 8795,
  "\u2581patrz": 8796,
  "\u2581\u201d": 8797,
  "kwalifik": 8798,
  "pped": 8799,
  "ni\u00f3s\u0142": 8800,
  "\u2581graczy": 8801,
  "\u2581biura": 8802,
  "\u2581Pil": 8803,
  "\u2581thereof": 8804,
  "nning": 8805,
  "\u2581Indonesia": 8806,
  "\u2581HA": 8807,
  "yzm": 8808,
  "przed": 8809,
  "\u2581Bell": 8810,
  "\u2581Jedno": 8811,
  "\u2581mi\u0142y": 8812,
  "\u2581Sab": 8813,
  "Car": 8814,
  "rov": 8815,
  "\u2581Venice": 8816,
  "\u2581Lee": 8817,
  "\u2581matki": 8818,
  "\u2581Saturday": 8819,
  "ruch": 8820,
  "RY": 8821,
  "mod": 8822,
  "83": 8823,
  "\u2581anyway": 8824,
  "\u2581zmiana": 8825,
  "\u017ani": 8826,
  "\u2581Ji": 8827,
  "\u258143": 8828,
  "quality": 8829,
  "\u2581agencies": 8830,
  "\u2581czuj\u0119": 8831,
  "\u2581automat": 8832,
  "\u2581pory": 8833,
  "fil": 8834,
  "\u2581Carl": 8835,
  "\u2581threat": 8836,
  "\u2581Solutions": 8837,
  "\u2581szybkie": 8838,
  "\u2581ge": 8839,
  "\u2581Date": 8840,
  "\u2581sypialni": 8841,
  "\u2581ekonomiczny": 8842,
  "\u2581\u017cadnej": 8843,
  "CR": 8844,
  "lov": 8845,
  "\u2581Urz\u0105dzenie": 8846,
  "\u2581Internetu": 8847,
  "\u2581Tech": 8848,
  "\u2581SO": 8849,
  "\u2581older": 8850,
  "\u2581PHP": 8851,
  "\u2581elektro": 8852,
  "\u2581Files": 8853,
  "\u2581najwi\u0119kszych": 8854,
  "\u2581Sprzeda\u017c": 8855,
  "rb": 8856,
  "hof": 8857,
  "kowych": 8858,
  "\u2581lubi\u0119": 8859,
  "/10": 8860,
  "post": 8861,
  "\u2581cons": 8862,
  "izacja": 8863,
  "\u2581favor": 8864,
  "\u2581Sara": 8865,
  "\u2581functional": 8866,
  "\u2581wypad": 8867,
  "laz": 8868,
  "\u2581jeste\u015bcie": 8869,
  "SH": 8870,
  "yo": 8871,
  "pot": 8872,
  "\u2581widzie\u0107": 8873,
  "\u258110%": 8874,
  "\u2581Universal": 8875,
  "\u2581Smith": 8876,
  "\u2581sponsor": 8877,
  ",000": 8878,
  "\u2581aktywno\u015bci": 8879,
  "\u2581zbiorach": 8880,
  "\u2581mid": 8881,
  "\u2581AB": 8882,
  "\u2581Asrock": 8883,
  "\u2581consumers": 8884,
  "eller": 8885,
  "nut": 8886,
  "\u2581introduce": 8887,
  "\u2581przepisami": 8888,
  "\u2581dictionaries": 8889,
  "\u2581Tekst": 8890,
  "\u2581airports": 8891,
  "\u2581drawing": 8892,
  "DP": 8893,
  "uni": 8894,
  "\u2581Short": 8895,
  "jpopularniejsze": 8896,
  "\u2581characters": 8897,
  "ude": 8898,
  "\u2581przyj\u0119cia": 8899,
  "\u2581g\u0142\u00f3wne": 8900,
  "\u2581sposoby": 8901,
  "\u2581Male": 8902,
  "ordinate": 8903,
  "\u2581zielony": 8904,
  "read": 8905,
  "\u2581Europejsk\u0105": 8906,
  "\u2581Nowym": 8907,
  "\u2581w\u0142asnej": 8908,
  "\u2581pacjenta": 8909,
  "\u2581ourselves": 8910,
  "\u2581clinical": 8911,
  "\u2581skrzy": 8912,
  "ith": 8913,
  "\u2581opini\u0119": 8914,
  "\u2581bowiem": 8915,
  "\u2581opowiada": 8916,
  "\u2581cook": 8917,
  "0.1": 8918,
  "cket": 8919,
  "\u2581wi\u0119ksze": 8920,
  "\u2581zwi\u0119kszenia": 8921,
  "\u258141": 8922,
  "rom": 8923,
  "\u2581(6)": 8924,
  "\u2581d\u0142u\u017cej": 8925,
  "\u2581lovely": 8926,
  "\u2581balkon": 8927,
  "\u2581MB": 8928,
  "\u2581du\u017ca": 8929,
  "cro": 8930,
  "\u2581Umiej\u0119tno\u015bci": 8931,
  "\u2581recording": 8932,
  "\u2581wire": 8933,
  "\u2581niezale\u017cnie": 8934,
  "Male": 8935,
  "\u2581partnership": 8936,
  "\u2581ads": 8937,
  "\u0142\u0105czenie": 8938,
  "\u2581leczenie": 8939,
  "\u2581Monday": 8940,
  "\u2581bone": 8941,
  "\u2581ensuring": 8942,
  "\u2581dodatkowo": 8943,
  "\u2581Afryki": 8944,
  "lement": 8945,
  "\u2581znalezienie": 8946,
  "\u2581Pinterest": 8947,
  "\u2581Cas": 8948,
  "\u2581wielkie": 8949,
  "\u2581zatrudnienia": 8950,
  "\u00f3c": 8951,
  "rac": 8952,
  "mienne": 8953,
  "\u2581szef": 8954,
  "\u2581root": 8955,
  "\u2581Meeting": 8956,
  "\u2581Hel": 8957,
  "\u2581terminie": 8958,
  "\u2581film\u00f3w": 8959,
  "rid": 8960,
[...]
